, 1036830
. 829466
the 481197
and 364521
to 303971
of 283275
a 258397
in 243042
that 230662
I 199840
it 185852
you 173775
is 159158
&apos;s 139042
we 132289
&quot; 114937
so 105918
und 104530
this 101163
die 97906
was 90311
They 81485
? 72649
for 71933
-- 69777
are 69100
have 66903
on 66062
What 65301
der 62605
das 61776
ich 60391
with 60125
can 57921
es 57720
ist 55568
&apos;t 54145
an 53094
: 52850
There 52425
wir 52173
about 51391
be 49709
as 49402
all 49312
at 46130
zu 45931
do 44399
not 43845
sie 42760
&apos;re 41499
If 39356
one 39204
people 38668
like 38594
my 38183
from 37897
or 35929
These 34490
but 33928
our 33536
just 32463
We 31973
ein 31878
The 31684
But 30891
very 29998
out 29922
me 29822
by 29276
eine 29259
von 29203
nicht 29086
dass 28822
them 28349
Know 28335
going 28078
up 27877
More 26478
because 26336
when 26280
den 25831
also 25752
Think 25737
had 25666
See 25419
he 25207
Here 25007
which 24564
were 24085
who 23969
their 23866
your 23855
really 23731
mit 23601
would 23418
get 23166
how 23090
man 23053
&apos;ve 22790
us 22676
wie 22176
Sie 21389
This 21171
auf 21036
&apos;m 21034
Time 20915
then 20713
has 20279
will 20264
world 20221
way 19770
into 19719
some 19603
actually 19386
don 19244
sich 19213
Things 18727
sind 18681
aber 18473
years 18337
als 18314
er 18050
für 18031
now 17968
where 17949
Now 17866
haben 17855
go 17655
other 17601
wenn 17565
want 17463
war 17160
could 17023
been 16674
make 16428
said 15715
um 15516
something 15430
diese 15259
♫ 15132
She 15004
two 14528
than 14461
right 14351
those 14194
im 14016
much 13962
no 13940
first 13782
thing 13776
little 13704
got 13615
look 13160
Back 13118
say 13046
only 12734
dem 12699
over 12582
Work 12181
; 12081
Many 11928
most 11883
Need 11863
his 11842
life 11805
einen 11804
uns 11600
kind 11579
take 11395
even 11352
oder 11243
Lot 11231
Good 11145
können 11027
des 10929
did 10835
around 10803
werden 10634
new 10619
different 10578
down 10461
&apos;ll 10449
why 10444
aus 10417
hier 10273
her 10258
hat 10165
-@@ 10017
through 10004
use 9967
Same 9816
auch 9754
Come 9727
Well 9638
einer 9483
every 9420
über 9403
He 9245
doing 9181
kann 9146
being 9115
able 9114
einem 9045
am 8985
nur 8903
put 8896
dann 8717
sehr 8664
Day 8648
wird 8585
Three 8512
Any 8419
called 8284
un@@ 8184
Percent 8151
&apos;d 8134
made 8093
Menschen 7998
Today 7976
mich 7939
gibt 7916
tell 7829
After 7784
Great 7764
well 7747
&apos; 7740
find 7671
– 7608
fact 7461
its 7413
human 7412
sein 7361
Another 7302
Change 7236
Talk 7225
sehen 7184
didn 7158
own 7151
Year 7148
Idea 7101
Big 7099
etwas 7070
dieser 7027
noch 7024
started 6946
Before 6902
ed 6890
nach 6858
let 6801
last 6728
should 6707
in@@ 6706
went 6700
course 6684
thought 6660
mir 6632
important 6620
! 6616
habe 6585
off 6572
better 6567
Might 6557
give 6540
re@@ 6517
A 6472
never 6468
Again 6406
system 6389
problem 6360
still 6344
s 6285
Part 6205
vor 6199
Next 6160
bei 6127
Start 6107
alle 6046
mehr 6041
ago 6037
Brain 6035
Story 6018
together 5982
him 5974
show 5966
used 5937
came 5923
place 5922
water 5875
does 5874
Bit 5819
da 5798
10 5797
few 5765
Welt 5695
When 5633
ing 5607
meine 5593
between 5591
each 5580
mean 5572
technology 5549
Women 5544
zum 5483
looking 5476
- 5475
weil 5428
Too 5382
Long 5354
example 5314
found 5308
Because 5304
done 5274
wurde 5268
How 5232
question 5227
machen 5190
End 5173
doesn 5156
s@@ 5150
Point 5148
er@@ 5125
Ihnen 5112
data 5112
School 5103
dies 5095
an@@ 5085
sort 5082
love 5077
dieses 5039
wanted 5026
understand 5012
Thank 5009
en@@ 4952
real 4951
live 4944
Design 4930
Whole 4926
try 4919
Children 4905
wirklich 4899
Call 4891
immer 4843
May 4839
trying 4833
y 4820
Working 4777
Away 4749
million 4748
unsere 4742
Ever 4739
Four 4726
d@@ 4719
person 4718
nun 4710
always 4705
durch 4690
believe 4661
using 4633
less 4612
tun 4569
feel 4546
Country 4521
jetzt 4492
Number 4469
Second 4458
help 4458
Kids 4411
Space 4362
viele 4355
Times 4353
One 4339
viel 4335
Means 4328
ihre 4327
Thinking 4320
create 4317
hatte 4316
20 4309
ver@@ 4308
old 4301
took 4292
keine 4291
power 4285
p@@ 4277
information 4244
S@@ 4233
maybe 4228
Money 4211
everything 4184
c@@ 4178
ated 4175
ate 4170
ation 4161
t@@ 4138
become 4136
Small 4096
b@@ 4095
te 4086
five 4063
Leute 4058
getting 4057
light 4051
enough 4036
City 4026
quite 4007
Zeit 4004
wissen 3994
eines 3970
Comes 3964
Best 3952
müssen 3950
sense 3939
Computer 3938
o 3938
My 3933
ch@@ 3930
dis@@ 3912
denn 3906
ihr 3900
sagen 3890
k@@ 3886
Left 3885
home 3880
probably 3878
Social 3874
diesem 3872
Energy 3859
happened 3853
waren 3852
ab@@ 3836
Future 3832
food 3826
okay 3824
building 3815
diesen 3814
Leben 3799
sagte 3794
einfach 3789
Dinge 3788
interesting 3788
body 3779
Talking 3774
Making 3768
alles 3756
bin 3742
Hand 3732
zwei 3725
du 3721
Jahren 3719
Ask 3709
andere 3708
play 3707
Art 3703
Science 3683
stuff 3683
told 3665
i 3651
without 3624
P@@ 3620
side 3620
Dollars 3618
Let 3618
f@@ 3606
be@@ 3590
pretty 3588
Coming 3579
countries 3576
ts 3573
New 3572
lives 3557
g@@ 3552
anything 3537
No 3534
such 3528
y@@ 3516
ways 3511
Hard 3498
Imagine 3490
damit 3490
&#91; 3488
&#93; 3487
al 3486
... 3485
anderen 3481
wo 3479
Across 3475
moment 3471
half 3461
m@@ 3445
happen 3442
o@@ 3434
Earth 3432
says 3430
mein 3426
Build 3409
Form 3407
Africa 3396
Living 3381
simple 3381
ers 3379
saw 3378
vielleicht 3378
Bad 3370
else 3362
Seen 3360
Makes 3354
gut 3353
Health 3352
zur 3350
würde 3335
Having 3331
Room 3326
Internet 3316
Goes 3311
Men 3308
care 3304
Experience 3300
bis 3300
geht 3290
asked 3286
Move 3281
later 3274
happens 3257
days 3248
A@@ 3244
e@@ 3239
ge@@ 3234
Problems 3223
di@@ 3213
Project 3206
ating 3203
reason 3202
30 3196
Picture 3184
set 3178
Family 3160
nothing 3155
t 3116
OK 3113
50 3109
high 3102
n@@ 3096
learn 3091
Case 3090
h@@ 3075
100 3064
Inside 3063
Process 3063
States 3059
selbst 3037
Jahre 3034
Within 3034
while 3025
T@@ 3022
ten 3017
B@@ 3014
H@@ 3013
basically 3009
Young 2995
Far 2993
M@@ 2985
ting 2985
almost 2983
business 2983
Single 2975
possible 2974
en 2973
Car 2970
saying 2969
Guy 2962
Already 2958
ein@@ 2955
Book 2951
yet 2949
K@@ 2945
planet 2937
muss 2932
u@@ 2929
a@@ 2924
al@@ 2923
whether 2921
once 2918
History 2914
heute 2908
l@@ 2901
E@@ 2900
looked 2898
Ideas 2896
ted 2895
Six 2889
top 2874
C@@ 2865
both 2860
Child 2857
schon 2856
L@@ 2855
global 2854
someone 2843
answer 2838
cells 2825
Job 2824
i@@ 2818
True 2814
mind 2813
looks 2807
Community 2804
Matter 2795
wrong 2792
Public 2788
bring 2785
China 2782
heard 2780
billion 2774
keep 2766
myself 2765
hope 2764
sure 2764
st@@ 2761
ja 2751
often 2746
United 2741
Oh 2737
Yes 2730
wieder 2726
z@@ 2722
built 2719
warum 2719
Words 2717
Sometimes 2708
’ 2707
einige 2704
remember 2704
open 2700
Age 2692
D@@ 2683
G@@ 2679
ti@@ 2679
Music 2672
möchte 2668
ihnen 2658
el@@ 2657
♪ 2648
ly 2647
gehen 2644
con@@ 2643
per 2641
months 2634
Nature 2626
Language 2623
piece 2620
on@@ 2619
under 2619
ter 2616
aus@@ 2612
couple 2610
beautiful 2605
ob 2605
Government 2604
Turn 2600
places 2599
Control 2597
F@@ 2594
Read 2594
N@@ 2590
ar@@ 2586
or@@ 2578
Order 2575
ganz 2575
amazing 2573
Research 2571
Group 2563
cancer 2559
Woman 2557
art 2550
ri@@ 2541
Face 2539
tatsächlich 2539
davon 2537
Species 2532
Works 2525
at@@ 2524
v@@ 2518
r@@ 2517
ging 2516
O@@ 2512
e 2511
isn 2505
until 2501
de@@ 2500
everybody 2495
wasn 2489
dort 2488
Friends 2486
Line 2486
R@@ 2486
level 2485
Universe 2482
Name 2480
video 2480
genau 2474
taking 2470
li@@ 2467
Run 2455
completely 2454
Society 2450
Stories 2449
decided 2447
de 2441
hatten 2438
education 2437
gets 2435
Study 2430
TED 2427
15 2422
ones 2418
Word 2412
fast 2407
Geschichte 2406
though 2397
exactly 2396
model 2396
became 2393
Heart 2386
m 2386
auf@@ 2384
Middle 2373
Rather 2373
happening 2373
Large 2370
animals 2369
land 2365
es@@ 2364
students 2364
wollen 2364
Company 2362
Kinder 2361
must 2358
Kinds 2355
State 2355
ability 2355
knew 2353
itself 2351
stop 2347
th@@ 2347
India 2345
könnte 2340
ent@@ 2332
somebody 2331
ihn 2326
head 2325
Learned 2323
ourselves 2319
hear 2318
drei 2315
since 2307
is@@ 2306
York 2305
Against 2303
America 2298
Minutes 2294
Night 2287
w@@ 2284
meiner 2283
Questions 2280
denken 2271
hours 2268
darüber 2267
kommen 2267
p 2264
themselves 2263
God 2261
share 2256
am@@ 2255
created 2253
Environment 2252
turns 2252
lassen 2250
sp@@ 2250
huge 2246
House 2240
ins 2239
Ver@@ 2235
worked 2225
Then 2223
Jahr 2220
Front 2217
game 2216
Guys 2204
e-@@ 2201
wurden 2201
News 2198
paar 2198
Systems 2186
couldn 2185
ro@@ 2183
werde 2179
um@@ 2169
won 2167
least 2165
— 2165
American 2164
An@@ 2164
ent 2163
sondern 2158
figure 2151
seine 2147
particular 2145
yeah 2143
Disease 2142
finally 2141
mal 2141
Third 2140
along 2140
vielen 2136
Early 2135
ge 2132
ung 2132
others 2127
ous 2127
thousands 2122
based 2119
gab 2116
gave 2112
happy 2104
ant 2103
Air 2102
Natural 2098
sh@@ 2096
taken 2094
past 2091
le 2090
ic 2089
lots 2084
jeder 2080
sound 2079
ac@@ 2078
instead 2078
doch 2075
learning 2075
mother 2073
geben 2070
Team 2067
Machine 2064
everyone 2064
wäre 2064
40 2054
changed 2048
os@@ 2046
Rest 2044
moving 2042
unserer 2037
difference 2030
entire 2028
finden 2027
Beispiel 2021
j@@ 2019
outside 2019
fish 2013
kein 2009
Problem 2008
sogar 2008
ine 2006
k 2006
op@@ 2006
dazu 2005
denen 2003
it@@ 1998
J@@ 1997
während 1997
Close 1986
h 1981
Cell 1975
vom 1975
red 1970
et 1968
kommt 1968
macht 1967
Century 1965
Oil 1963
area 1960
ding 1955
Cities 1949
Population 1949
free 1946
DNA 1944
neue 1943
denke 1942
unser 1937
Easy 1934
Market 1934
W@@ 1925
Yourself 1921
given 1921
Black 1919
Teil 1911
gemacht 1910
perhaps 1910
Behind 1908
Ocean 1904
turned 1904
leave 1903
natürlich 1897
Takes 1895
einmal 1894
Media 1888
et@@ 1883
terms 1882
weiß 1881
parts 1880
eyes 1877
certain 1876
ds 1871
stand 1870
ohne 1867
needs 1863
difficult 1862
Culture 1861
seeing 1860
Dollar 1859
beginning 1858
seven 1858
during 1857
Film 1853
ans 1853
AT 1851
n 1849
ates 1846
zwischen 1845
weiter 1842
gerade 1834
wonderful 1834
el 1832
began 1831
Tag 1830
nichts 1825
size 1824
glaube 1821
CA 1818
dafür 1816
tic 1816
Image 1814
le@@ 1814
cannot 1811
Local 1810
View 1810
inter@@ 1810
People 1809
economic 1809
walk 1800
nie 1797
amount 1793
würden 1793
em@@ 1791
zeigen 1791
Common 1790
You 1789
companies 1787
se@@ 1786
I@@ 1781
field 1781
ma@@ 1781
unter 1780
simply 1779
Test 1776
sch@@ 1774
Powerful 1771
realized 1771
Deal 1768
needed 1768
stellen 1764
rate 1760
ally 1758
Paper 1754
Frage 1753
whatever 1751
pro@@ 1747
longer 1744
sieht 1743
hands 1739
behavior 1731
zurück 1728
Reality 1726
Some 1726
friend 1725
parents 1722
interested 1717
tried 1717
grow 1715
Full 1714
felt 1714
ihren 1714
Death 1713
Frauen 1707
Poor 1704
Gone 1702
ap@@ 1697
verstehen 1694
Week 1689
ersten 1688
passiert 1688
konnte 1687
Just 1685
nehmen 1685
self-@@ 1685
leben 1684
ar 1682
quickly 1679
Growth 1676
value 1674
etwa 1673
tions 1673
Scale 1671
vor@@ 1669
either 1668
Cost 1666
father 1663
Material 1662
ra@@ 1662
Buy 1657
Shows 1655
Arbeit 1654
eight 1649
as@@ 1648
se 1648
spend 1648
known 1647
über@@ 1644
born 1641
Animal 1640
daran 1640
bl@@ 1639
ie 1639
spent 1637
Street 1635
Innovation 1633
feet 1632
humans 1630
im@@ 1629
ex@@ 1626
sitting 1625
weeks 1622
Lost 1620
White 1620
ations 1620
for@@ 1620
Political 1618
d 1616
Opportunity 1609
ni@@ 1609
Millionen 1608
erste 1604
12 1603
b 1600
pay 1597
complex 1596
Phone 1595
Prozent 1593
Revolution 1588
letzten 1588
Surface 1586
Patients 1585
Generation 1583
South 1583
economy 1580
sollte 1577
Chance 1576
sollten 1576
Force 1574
Not 1573
dabei 1571
king 1571
changes 1570
Program 1567
Write 1567
areas 1566
könnten 1562
Land 1559
U.S. 1559
ity 1558
ad@@ 1555
normal 1554
ves 1554
incredible 1552
step 1551
green 1550
Eat 1548
Watch 1548
Morning 1546
große 1545
Idee 1544
ground 1544
ab 1542
Experiment 1541
Girl 1540
meinen 1537
bekommen 1536
wouldn 1535
stage 1534
ve 1533
average 1529
online 1529
est 1527
per@@ 1525
Ab@@ 1523
growing 1523
blue 1517
den@@ 1517
Sea 1516
attention 1515
numbers 1515
challenge 1512
fly 1512
cool 1511
ur@@ 1510
realize 1509
structure 1509
g 1506
meinem 1504
bringen 1503
sprechen 1501
th 1501
ings 1500
developed 1499
arbeiten 1498
Met 1497
feeling 1497
kam 1497
Physical 1493
Books 1491
V@@ 1491
ir@@ 1491
meisten 1490
wollte 1490
forward 1487
brought 1485
Voice 1484
Scientists 1483
Right 1482
25 1481
speak 1479
wichtig 1478
2 1476
Giving 1475
ganze 1472
Climate 1470
nice 1470
Map 1466
Technologies 1466
l 1466
allow 1465
ded 1465
ness 1465
sagt 1463
over@@ 1461
ziemlich 1460
In@@ 1458
Theory 1456
World 1455
Evolution 1453
besser 1449
running 1445
wrote 1445
1 1443
pre@@ 1442
seems 1442
Patient 1441
au@@ 1441
Google 1438
bottom 1436
literally 1436
Sun 1435
ihrer 1435
alone 1429
darauf 1429
understanding 1429
Sch@@ 1428
Act 1425
Millions 1425
changing 1424
ot@@ 1423
knowledge 1422
ul@@ 1422
individual 1419
Personal 1417
hold 1416
cars 1414
em 1411
st 1411
Miles 1409
ter@@ 1409
Access 1408
ch 1408
hundreds 1406
ens 1405
Images 1403
Tools 1401
starting 1401
Weg 1400
welche 1400
fl@@ 1399
result 1398
car@@ 1396
University 1395
ck@@ 1395
anyone 1393
box 1393
ol@@ 1393
Movement 1392
English 1391
tion 1391
60 1388
clear 1388
playing 1388
zusammen 1388
Bild 1385
Kid 1384
telling 1384
gives 1383
Z@@ 1382
ern 1382
ungen 1380
Key 1378
eigentlich 1377
gen 1377
creating 1376
res@@ 1376
y-@@ 1376
ze 1376
Mal 1372
ons 1372
weniger 1372
Fun 1371
North 1371
end 1371
ischen 1371
Web 1369
Wasser 1367
audience 1366
sa@@ 1363
Dark 1362
bi@@ 1361
ks 1360
CUT 1356
issue 1355
c 1353
u 1350
aren 1349
discovered 1349
fall 1348
Deep 1346
Europe 1340
Development 1339
designed 1338
short 1336
wer 1336
Developing 1335
kleinen 1335
Lab 1334
Wall 1332
Geld 1331
jemand 1331
sten 1331
law 1329
center 1328
showed 1326
seem 1325
Fear 1324
ke 1324
relationship 1322
Save 1321
gen@@ 1319
Ende 1318
danke 1318
asking 1317
focus 1317
Daten 1315
Ice 1314
absolutely 1313
ator 1312
Support 1308
St@@ 1307
os 1306
under@@ 1306
bedeutet 1305
blood 1305
200 1303
co@@ 1302
Ihre 1301
Industry 1301
si@@ 1300
mis@@ 1299
General 1298
recently 1298
gl@@ 1297
Dank 1296
tive 1295
Mann 1293
Sex 1293
tr@@ 1293
product 1292
om@@ 1291
Computers 1290
com@@ 1290
Jobs 1288
ic@@ 1287
unseren 1287
Medical 1286
ck 1286
gesehen 1285
talked 1283
Type 1282
pl@@ 1282
vier 1282
Sache 1281
Technologie 1280
risk 1280
Issues 1279
U@@ 1279
incredibly 1278
solve 1278
Haven 1277
dachte 1276
resources 1276
80 1275
Al@@ 1274
ets 1273
kleine 1272
available 1270
produce 1269
reasons 1269
/ 1267
begin 1267
Major 1266
brauchen 1263
Choice 1262
situation 1261
ische 1260
hi@@ 1259
solution 1259
Girls 1256
Y@@ 1256
Chinese 1255
Pictures 1255
Message 1254
knows 1253
writing 1253
Shape 1252
ihm 1252
lived 1246
soon 1246
Gehirn 1245
ec@@ 1245
la@@ 1245
Tiny 1244
involved 1244
ors 1240
Meet 1238
z 1237
Be@@ 1236
3 1231
network 1229
% 1228
jedes 1227
Seite 1226
Office 1225
re 1224
Ch@@ 1223
quality 1223
Special 1222
beim 1222
Beyond 1221
ag@@ 1221
becomes 1221
evidence 1220
großen 1219
ism 1218
Color 1216
perfect 1216
seit 1215
especially 1214
ha@@ 1214
Potential 1213
impact 1212
Robot 1211
bigger 1210
sub@@ 1210
Chris 1209
tra@@ 1209
baby 1208
modern 1207
Ich 1203
Plan 1203
died 1203
ru@@ 1203
Groups 1202
First 1197
uses 1194
putting 1193
„ 1193
Effect 1191
similar 1191
vi@@ 1191
11 1186
jeden 1185
ere 1182
mon@@ 1182
guess 1181
explain 1180
software 1180
zu@@ 1178
glauben 1176
likely 1176
lich 1174
Weise 1172
West 1172
il@@ 1172
Look 1170
versuchen 1170
500 1169
positive 1169
Teach 1168
gesagt 1167
war@@ 1164
Student 1163
Vor@@ 1163
Device 1161
Frau 1161
lose 1158
towards 1158
Boy 1157
thank 1157
später 1155
rules 1154
ale 1153
Send 1152
ganzen 1151
hätte 1150
Maybe 1149
hundred 1149
truth 1149
ten@@ 1147
Drive 1144
dead 1144
forms 1144
keinen 1144
College 1143
Every 1143
LED 1143
x 1143
chen 1142
par@@ 1142
Aus@@ 1141
notice 1141
Raum 1140
ungs@@ 1140
East 1138
System 1138
drugs 1138
Where 1137
Wind 1137
Cause 1136
Action 1135
Scientific 1135
several 1135
schauen 1134
Grund 1131
Un@@ 1131
Menge 1130
particularly 1130
sit 1130
Er@@ 1128
“ 1128
approach 1127
lo@@ 1126
Present 1125
anybody 1125
Walking 1124
ment 1123
indem 1122
Nine 1121
eye 1120
Drug 1119
Games 1119
Region 1119
HIV 1118
Materials 1118
gegen 1118
allen 1117
BASIC 1115
Re@@ 1115
Hit 1114
Worth 1114
sounds 1114
Everywhere 1112
Person 1112
onto 1112
ches 1110
oc@@ 1110
bar 1109
lernen 1108
moved 1108
18 1105
da@@ 1103
Ein@@ 1102
Minute 1102
jede 1101
5 1100
liche 1100
vision 1100
Projects 1099
digital 1099
security 1099
schools 1097
Version 1094
cl@@ 1094
ia 1093
largest 1093
Carbon 1091
board 1091
obviously 1091
among 1090
showing 1089
so@@ 1089
stay 1089
examples 1088
mine 1087
solar 1087
certainly 1086
gra@@ 1086
activity 1085
mass 1085
Zukunft 1084
man@@ 1084
violence 1084
ended 1083
Kind 1081
wait 1081
Break 1077
sc@@ 1077
4 1076
out@@ 1076
Ort 1074
anders 1074
Strong 1073
ary 1073
schaffen 1073
ta@@ 1072
totally 1072
oft 1071
18@@ 1070
Code 1070
bauen 1069
ende 1069
heißt 1069
wants 1068
teachers 1067
Starts 1066
funktioniert 1066
develop 1065
konnten 1065
ing@@ 1064
men 1063
wahrscheinlich 1063
nobody 1062
ling 1061
object 1061
sent 1060
Village 1058
extremely 1058
.@@ 1057
Low 1057
biggest 1057
up@@ 1057
Reach 1056
Success 1056
eigenen 1056
ne 1056
us@@ 1056
exciting 1055
heraus 1055
hin@@ 1055
ob@@ 1054
C 1053
her@@ 1052
gute 1051
2@@ 1050
Democracy 1050
Journey 1049
Mar@@ 1049
rich 1049
memory 1048
ses 1048
wenig 1048
Camera 1047
measure 1047
ving 1047
Lead 1046
ists 1046
results 1046
Month 1045
nutzen 1045
USA 1044
happiness 1044
Medicine 1043
halten 1043
Position 1042
plants 1042
sicher 1042
ut@@ 1041
Creative 1039
all@@ 1039
pattern 1038
ty 1038
Don 1037
Moment 1037
te@@ 1037
mar@@ 1035
further 1034
sk@@ 1034
Hour 1032
lines 1032
ants 1031
period 1031
Class 1030
Poverty 1030
ies 1030
ators 1029
compassion 1029
connected 1029
higher 1029
ms 1028
bu@@ 1027
add 1026
Models 1024
Response 1024
Table 1024
continue 1024
meaning 1024
pa@@ 1024
ready 1024
der@@ 1022
helfen 1021
nein 1021
Sh@@ 1020
fire 1019
Gas 1018
Hospital 1018
Erde 1017
leaders 1017
pro 1016
richtig 1015
ph@@ 1014
3@@ 1013
ste 1013
Probleme 1012
bo@@ 1012
national 1012
allowed 1010
listen 1010
Named 1009
pick 1009
eventually 1008
schnell 1008
t-@@ 1008
crazy 1007
follow 1006
fünf 1006
mo@@ 1006
Park 1005
Training 1004
source 1004
ality 1003
individuals 1003
trees 1003
Song 1002
lichen 1002
cur@@ 1001
Organization 1000
favorite 1000
lange 999
watching 999
B 998
möglich 996
Buildings 995
90 994
Moral 994
Most 994
faster 994
Impossible 993
ass@@ 993
expect 992
Finding 991
Son 991
mental 991
essentially 990
tells 990
sah 989
D 988
zeigt 988
Even 987
non-@@ 987
wi@@ 987
erzählen 986
late 986
Stadt 985
Th@@ 985
conditions 984
je 983
role 981
one-@@ 980
seiner 980
ters 980
ance 978
Communities 977
enden 977
gu@@ 977
Fall 976
les 976
teacher 976
Museum 974
Spread 974
skin 974
suddenly 974
worse 974
List 973
Peace 973
Road 972
Square 972
ep@@ 972
qu@@ 972
And 971
Brains 971
Speed 971
bunch 971
Ar@@ 970
SAFE 970
ber@@ 970
grew 970
lang 970
shown 970
Doctor 969
London 968
Thousand 968
isch 967
meant 967
tes 966
ders 965
nuclear 965
wish 965
Movie 964
genug 964
older 964
erst 963
fundamental 962
objects 962
stehen 962
fully 961
products 961
sorts 960
supposed 960
allows 959
ce 959
els 959
Extraordinary 958
Mon@@ 958
ged 958
Door 957
Website 957
choose 957
Trust 956
end@@ 954
ship 954
Rights 953
ei@@ 953
somewhere 953
f 952
Studies 951
darum 951
du@@ 951
taught 951
unter@@ 951
goal 950
points 950
Sleep 949
Site 948
neuen 948
ungefähr 948
Service 946
unserem 946
Killed 944
indeed 943
fragen 942
sing 942
dream 941
context 940
manchmal 940
smart 940
Screen 939
WHO 939
healthy 939
falls 938
larger 938
shot 938
Those 937
cases 936
nächsten 935
bodies 933
x@@ 933
ard 932
wife 932
arm 931
fight 930
including 930
durch@@ 928
Religion 927
Central 926
begann 926
pieces 925
ig@@ 924
traditional 924
Above 922
Main 922
pe@@ 921
Visual 920
usually 920
complicated 919
fi@@ 919
ger@@ 919
Mom 918
exist 917
increase 917
Labor 916
Mutter 916
Standing 916
international 916
Con@@ 915
John 915
Families 914
Reading 914
interest 914
tend 914
truly 914
Stars 913
überall 913
oh 912
16 910
alive 910
su@@ 910
Virus 909
successful 909
written 909
Bank 908
Sp@@ 908
cor@@ 908
liegt 908
Record 907
TV 907
specific 907
Tree 906
critical 906
ry 906
to@@ 906
sei 905
series 905
Ma@@ 904
Page 904
Serious 903
beings 903
protect 903
weight 903
300 902
Gene 902
It 902
ert 902
tri@@ 902
ful 901
excited 900
upon 900
Biology 898
Kill 898
ak@@ 898
spielen 898
Dr. 897
bar@@ 896
Americans 895
cks 894
pi@@ 894
massive 893
mit@@ 893
Tool 892
s-@@ 891
Police 890
electricity 890
Slow 889
crisis 889
bacteria 888
Patterns 887
price 887
Treatment 886
reden 886
sen 886
wa@@ 885
Like 884
Physics 884
somehow 884
Hot 883
ah 883
Robots 882
ci@@ 882
ken 882
Which 881
perspective 881
Körper 880
Schule 880
kennen 880
plant 880
private 880
provide 880
Afghanistan 879
conversation 879
Cold 877
bisschen 877
Pro@@ 876
Leuten 875
kept 875
African 874
deshalb 874
eb@@ 874
cre@@ 873
famous 873
smaller 873
dec@@ 872
seconds 872
seinen 872
active 871
Fine 870
Wonder 870
Planeten 867
ens@@ 866
bevor 865
los 865
ou@@ 865
recognize 865
ology 864
Lower 863
anywhere 863
range 863
sagten 863
70 862
Informationen 862
neurons 862
alt 861
gehört 861
verändern 861
himself 860
ker 860
Touch 859
Content 857
Ideen 857
Mars 857
waste 857
Performance 856
a-@@ 856
8 855
anymore 855
br@@ 854
doctors 854
Progress 853
weit 851
ne@@ 850
Greater 849
Machines 848
steht 848
actual 846
architecture 846
military 846
oben 844
ps 844
Intelligence 843
ger 843
pain 843
please 843
sti@@ 843
Di@@ 842
hören 842
nennen 841
tional 841
Babies 840
zed 839
and@@ 837
bri@@ 836
concept 836
familiar 835
ler 835
loved 833
sl@@ 833
9 832
Energie 832
earlier 832
gar 832
ved 832
weren 832
Hey 831
Listening 831
aware 831
becoming 831
legs 831
decisions 830
flow 830
hin 830
besonders 829
min@@ 829
David 828
skills 828
driving 827
Expensive 826
Meeting 824
President 824
ad 824
clearly 824
14 822
Zero 822
o-@@ 822
Production 821
throughout 821
Ge@@ 820
National 820
führen 820
hand@@ 820
Travel 819
no@@ 819
Antwort 818
Projekt 818
ihrem 818
imp@@ 818
Milliarden 817
current 817
dog 817
zurück@@ 817
bereits 816
musste 816
rec@@ 816
Genes 815
Punkt 815
practice 815
train 815
Waiting 814
eh@@ 814
ics 814
Levels 813
Policy 813
costs 813
income 813
Store 811
erkennen 811
sage 811
therefore 811
solutions 810
anderes 809
dich 809
ish 809
ä@@ 809
consider 808
ess 808
Western 807
Basis 806
Forest 806
do@@ 806
klar 806
Afrika 805
Humanity 805
search 805
except 803
ell 802
Pull 801
RiSE 801
eln 801
forth 801
4@@ 800
Car@@ 800
Town 800
ars 800
euch 800
ser@@ 800
total 800
entwickelt 799
Se@@ 798
6 797
Engineering 797
function 797
machte 797
ev@@ 796
hätten 796
w 796
connection 794
eren 794
ges@@ 794
age 793
fantastic 793
gleich 793
gt 793
math 793
me@@ 792
tu@@ 792
wor@@ 791
dangerous 789
freedom 789
ther@@ 789
floor 788
walked 788
Connect 787
Teaching 787
cra@@ 787
high-@@ 787
related 787
$ 786
Sell 786
Values 786
greatest 786
Männer 785
beauty 785
darin 785
ieren 785
gi@@ 784
nen 784
Effective 783
Fragen 783
Minds 783
fa@@ 783
verschiedene 783
ges 782
Final 780
subject 780
Auf@@ 779
Dad 779
ically 779
institutions 779
AIDS 778
Familie 778
Island 778
Your 778
draw 778
erreichen 778
ning 778
Direction 777
Minuten 776
immediately 776
invented 776
Bill 775
Natur 775
Video 774
er-@@ 774
win 774
decade 773
ble 772
des@@ 772
sm@@ 772
Environmental 771
il 771
treat 771
understood 771
Mädchen 770
benutzen 770
ner 770
po@@ 770
7 769
Arten 769
Unternehmen 769
namens 769
Financial 768
Ihr 768
Professor 766
ahead 766
Gruppe 765
Licht 765
trans@@ 765
Facebook 764
Magic 764
feed 764
gerne 764
obvious 764
ran@@ 764
Aid 763
gr@@ 763
ments 763
fer@@ 762
seinem 762
super@@ 762
NEAR 761
ked 761
ative 760
ely 760
PATH 759
Star 759
sorry 759
tic@@ 759
various 759
ot 758
services 758
24 757
decades 757
paid 757
Sky 756
conflict 756
ft 756
oo@@ 756
sen@@ 756
star@@ 756
Flying 755
genetic 755
governments 755
Cultural 754
San 754
ber 753
ran 753
Decision 752
Buch 751
strange 751
Bed 750
decide 750
willing 750
Radio 749
ow@@ 749
remarkable 749
19@@ 748
Japan 748
following 748
terrible 748
types 748
Text 747
although 747
instance 747
pri@@ 747
War 746
ized 746
sur@@ 746
fit 745
zusammen@@ 745
&amp; 744
career 743
d-@@ 743
ändern 743
Com@@ 742
Gesellschaft 742
ably 742
alen 742
che 742
Event 741
Mission 741
Party 741
Rule 741
choices 741
mer@@ 741
Augen 739
Boys 739
ence 739
braucht 738
comp@@ 738
Geschichten 737
irgendwie 737
Race 736
possibly 736
River 735
Sat 735
effects 735
go@@ 735
urban 735
ying 734
raise 733
enormous 732
bs 731
capacity 731
hole 731
iert 730
useful 729
wegen 729
innerhalb 728
jedem 728
played 728
Challenges 727
ats 727
Li@@ 726
pressure 726
Mountain 725
lights 724
markets 724
mobile 724
na@@ 724
politics 724
soll 724
einigen 723
niemand 723
Bi@@ 722
anyway 722
Laws 721
Citizens 720
cal 720
societies 720
ster 720
E 719
entwickeln 719
ian 718
original 718
Plastic 716
ed@@ 716
helped 716
bra@@ 715
Clean 714
shared 714
slightly 714
Slide 713
ati@@ 713
bewegen 713
diseases 713
eins 712
fy 712
published 712
Glass 711
Trade 711
en-@@ 711
Genome 710
speaking 710
Bilder 709
re-@@ 709
Angst 708
California 708
Sprache 708
Wissenschaft 708
weg 708
Stress 707
emotional 707
vorstellen 707
elle 706
Apart 705
Foot 705
directly 705
efficient 705
unique 705
temperature 704
Forces 703
Popular 703
worst 703
Gefühl 702
Infrastructure 702
complete 702
mi@@ 702
television 702
che@@ 701
daher 701
eating 701
mostly 701
press 701
rel@@ 701
Answers 700
Capital 700
colleagues 700
survive 700
below 698
nämlich 698
produced 698
Indien 697
King 697
obwohl 697
programs 697
erhalten 696
relationships 696
sechs 696
En@@ 695
Par@@ 695
blind 695
cher 695
dr@@ 695
fen 695
schwer 695
wh@@ 695
Push 694
biological 694
Meters 693
Patienten 693
amp 693
ore 693
Dance 692
Lebens 692
summer 692
Designer 691
Musik 691
male 691
ziehen 691
Möglichkeit 690
whose 690
female 689
sign 689
Twice 688
legal 688
ties 688
verschiedenen 687
Kopf 686
Self 686
T 686
ages 686
artist 686
causes 686
400 685
Fuel 685
Networks 685
dri@@ 685
etc 685
gleichen 685
Regierung 684
creativity 684
differences 684
recent 684
standard 684
tor 684
od@@ 683
Surgery 682
Vater 682
evolved 682
organizations 682
explore 681
we@@ 681
wollten 681
13 680
17 680
Address 680
beiden 680
eher 680
noticed 680
improve 679
Stunden 678
Atmosphere 677
Experiments 677
R 677
Sustainable 677
significant 677
Workers 676
extra 676
nation 676
tics 676
Depression 675
Term 675
besten 675
damals 675
Auto 674
tre@@ 674
7@@ 673
Designers 673
closer 673
gel@@ 673
Conference 672
og@@ 672
supply 672
ene 671
grade 671
Responsibility 670
daughter 670
stopped 669
Birds 668
verändert 668
-year-old 667
Ball 667
ali@@ 667
forget 667
la 667
licher 667
Chemical 666
funny 666
Gott 665
afraid 665
app@@ 665
bought 665
drop 665
Sand 664
dying 664
schreiben 664
verwenden 664
Track 663
quick 663
task 663
ys 663
cking 662
communicate 662
har@@ 662
purpose 662
r 662
ure 662
vers 662
1,000 661
Indian 661
einzige 661
gotten 661
ma 661
heat 660
worry 659
Stick 658
getan 658
kl@@ 658
menschlichen 658
pass 658
Hause 657
alten 657
Sachen 656
streets 656
bringt 655
Instead 654
easily 654
essen 654
straight 654
Oxygen 653
feels 653
fin@@ 653
shift 653
Photograph 651
ff@@ 651
hoch 651
kamen 651
bringing 650
fand 650
missing 650
beginnen 649
seemed 649
achieve 648
Sharing 647
carry 647
Life 646
Nations 646
character 646
Über@@ 646
Argument 645
dem@@ 645
unglaublich 645
Finger 644
ang@@ 644
birth 644
engage 644
molecules 644
ah@@ 642
back@@ 642
ben 642
broken 642
enti@@ 642
knowing 642
trouble 642
10,000 641
creates 641
dir 641
phones 641
planets 641
wohl 641
Secret 640
boat 640
degrees 640
ill@@ 640
Attack 639
Washington 639
aller 639
cr@@ 639
dar@@ 639
differently 638
str@@ 638
überhaupt 638
bitte 637
treffen 637
Consciousness 636
experiences 636
helping 636
reduce 636
Diversity 635
Kindern 635
Report 635
cy 635
Discover 634
England 634
Macht 634
del@@ 634
tors 634
sw@@ 633
teilen 633
focused 632
ü@@ 632
Gebäude 631
Signal 630
fix 630
Eltern 629
gesch@@ 629
scientist 629
Bridge 628
can@@ 628
anti@@ 627
fied 627
highly 627
Actually 626
aff@@ 626
ancient 626
complexity 626
speech 626
Prison 625
communication 625
mer 625
son 625
zwar 625
Haus 624
His 624
ces 624
pos@@ 624
ring 624
ton 624
tut 624
Devices 622
Hearing 622
ching 622
nearly 622
ris@@ 622
Corner 621
Meter 621
Passion 621
lässt 621
solche 621
Civil 619
Take 619
herum 619
none 619
spending 619
Bees 618
Partner 618
Richard 618
lung 618
zer@@ 618
Wort 617
ver 617
Länder 616
kurz 616
tro@@ 616
Cover 615
Identity 615
Stem 615
check 614
structures 614
Opportunities 613
Why 613
ched 613
studying 613
allem 612
ari@@ 612
fu@@ 612
passed 612
trial 612
versucht 612
year-old 612
rock 610
ously 609
Imagination 608
condition 608
fühlen 608
led 608
tremendous 608
Held 607
Mr. 607
artists 607
lies 607
two-@@ 607
deren 606
ess@@ 606
Giant 605
Lage 605
ben@@ 605
Universum 604
fairly 604
landscape 604
unten 604
ines 603
join 603
negative 603
ea@@ 602
ellen 602
fe@@ 602
ist@@ 602
Balance 601
ingly 601
ins@@ 601
loss 601
wild 601
bone 600
jedoch 600
letzte 600
respond 600
cht@@ 599
ently 599
on-@@ 599
Yellow 598
email 598
lucky 598
micro@@ 598
window 598
Farmers 597
definition 597
führt 597
hal@@ 597
inspired 597
tically 597
CO2 596
Events 596
stellt 596
members 595
necessary 594
fahren 593
groß 593
6@@ 592
nachdem 592
throw 592
Videos 591
forever 591
mat@@ 591
meines 591
tern 591
Core 590
Glück 590
Iran 590
Protein 590
agree 590
nahm 590
Erfahrung 589
Man@@ 589
figured 589
ischer 588
ize 588
35 587
Leads 587
Over 587
mussten 587
phenomenon 587
weitere 587
form@@ 586
setzen 586
Ri@@ 585
afford 585
distance 585
dreams 585
ell@@ 585
ik@@ 585
opposite 585
pr@@ 585
religious 585
schön 585
sion 585
Tiere 584
ils 584
medi@@ 584
creatures 583
menschliche 583
ns 583
raised 583
trained 583
M 582
S 582
despite 582
turning 582
apply 581
finished 581
ft@@ 580
ose 580
possibility 580
tens 580
Entwicklung 579
necessarily 579
nächste 579
Dingen 578
Moments 578
Roboter 578
Virtual 578
hair 578
nach@@ 578
sive 578
Freunde 577
Mc@@ 577
cli@@ 577
describe 577
gleiche 577
industrial 577
responsible 577
tischen 577
Ha@@ 576
Leadership 576
Spaces 576
Stück 576
failure 576
lösen 576
Coffee 575
Theater 575
Twitter 575
ese 575
links 575
particles 575
sold 575
swe@@ 575
alized 574
genommen 574
ical 574
schließlich 574
Iraq 573
bel@@ 573
notion 573
European 572
easier 572
note 572
wusste 572
9@@ 571
Discovery 571
Ex@@ 571
dly 571
ends 571
painting 571
saving 571
tion@@ 571
Engine 570
in-@@ 570
Campaign 569
Elements 568
Hand@@ 568
importantly 568
nimmt 568
zen 568
Detail 567
Justice 567
Photo 567
bleiben 567
entirely 567
genauso 567
inv@@ 567
suchen 567
time 567
10@@ 566
Card 566
benefits 566
leading 566
effort 565
erinnern 565
suffering 565
betrachten 564
ie@@ 564
respect 564
stra@@ 563
gri@@ 562
interact 562
zing 562
Qu@@ 561
Spiel 561
fer 561
5,000 560
Apple 560
However 560
Quote 560
cycle 560
three-@@ 560
Edge 559
Sa@@ 559
ow 559
wären 559
zes 559
Anfang 558
Grunde 558
brings 558
chten 558
Einstein 557
Talks 557
calls 557
squ@@ 557
1,@@ 556
Catch 556
Charge 556
Foreign 556
Sinn 556
Ziel 556
danach 556
Brother 555
Mo@@ 555
Publikum 555
eigene 555
gern 555
sick 555
und@@ 555
Asia 554
Mouse 554
bed 554
holding 554
Block 553
Bu@@ 553
Very 553
billions 553
opened 553
For@@ 552
char@@ 552
competition 552
recht 552
studied 552
Per@@ 551
rei@@ 551
Background 550
Matters 550
Valley 550
bes@@ 550
dessen 550
Le@@ 549
Wealth 549
fragte 549
visit 549
worden 549
2000 548
Once 548
capable 548
mag 548
ra 548
return 548
völlig 548
Möglichkeiten 547
bur@@ 547
Institute 546
ned 546
Investment 545
Verhalten 545
ay 545
fill 545
helps 545
offer 545
Station 544
cri@@ 544
interessant 544
organisms 544
to-@@ 544
zuerst 544
Kunst 543
Pounds 543
direkt 543
enjoy 543
Israel 542
Ra@@ 542
kaufen 542
Bird 541
Details 541
Noise 541
bor@@ 541
na 541
neu 541
Fl@@ 540
ley 540
manche 540
oceans 540
sector 540
tische 540
MIT 539
colors 539
150 538
French 538
Quantum 538
tt@@ 538
Did 537
sollen 537
ultimately 537
Tissue 536
Unterschied 536
extreme 536
gang 536
lesen 536
shouldn 536
Mal@@ 535
Thema 535
believed 535
falsch 535
tige 535
Hilfe 534
Traffic 534
ass 534
egal 534
failed 534
unfortunately 534
wave 534
ending 533
predict 533
Bar@@ 532
Base 532
Flight 532
adults 532
due 532
names 532
tur@@ 532
Bus 531
factory 531
filled 531
hell 531
British 530
Stuck 530
equal 530
heads 530
Invisible 529
Lack 529
Woche 529
besteht 529
husband 529
ory 529
welches 529
belief 528
fallen 528
mothers 528
ok@@ 528
typical 528
wei@@ 528
Coast 527
cap@@ 527
concerned 527
hast 527
lic@@ 527
treated 527
weapons 527
ß@@ 527
George 526
brilliant 526
caught 526
isches 526
majority 526
plötzlich 526
tly 526
Autos 525
Kultur 525
Random 525
Wochen 525
vast 525
wahr 525
weird 525
Staaten 524
ade 524
ey 524
id 524
ill 524
Collective 523
Degree 523
Harvard 523
P 523
creation 523
erte 523
Feedback 522
benefit 522
roll 522
sudden 522
ums 522
G 521
Monate 521
mod@@ 521
Moves 520
größte 520
insects 520
leaving 520
tat 520
ur 520
zi@@ 520
dy 519
gebaut 519
lt 519
slowly 519
Lebens@@ 518
ken@@ 518
separate 518
cul@@ 517
influence 517
intelligent 517
sequence 517
stri@@ 517
Engineers 516
Tage 516
That 516
advantage 516
cht 516
deeply 516
Malaria 515
consumption 515
erten 515
hate 515
lesson 515
Fighting 514
Pe@@ 514
findet 514
Galaxy 513
Operating 513
alternative 513
compared 513
constantly 513
ek@@ 513
stellte 513
Begins 512
So 512
childhood 512
ear@@ 512
ents 512
fre@@ 512
Bewegung 511
Breast 511
Interaction 511
Liebe 511
Los 511
Lösung 511
Mexico 511
Namen 511
Walls 511
al-@@ 511
zuvor 511
Gen@@ 510
Graph 510
Net 510
det@@ 510
managed 510
5@@ 509
eg@@ 509
faces 509
fest 509
forced 509
inn@@ 509
line 509
paying 509
Brand 508
Ru@@ 508
argue 508
Era 507
hum@@ 507
len 507
Ad@@ 506
Gu@@ 506
James 506
Ländern 506
described 506
strategy 506
De@@ 505
Francisco 505
emotions 505
fil@@ 505
wer@@ 505
zweite 505
Go 504
gre@@ 504
hinter 504
Audience 503
Circle 503
band 503
surprise 503
99 502
Nigeria 502
Status 502
neighborhood 502
Grand 501
Lehrer 501
Zellen 501
ction 501
Commercial 500
Count 500
Wirtschaft 500
ierte 500
otherwise 500
plus 500
testing 500
Jump 499
Tests 499
Tumor 499
ster@@ 499
Management 498
account 498
fascinating 498
mor@@ 498
Unter@@ 497
ots 497
ste@@ 497
Cheap 496
daraus 496
married 496
perfectly 496
pp@@ 496
sterben 496
transform 496
ö@@ 496
Center 495
Chicago 495
Desert 495
Wow 495
affect 495
ast@@ 495
deliver 495
demand 495
fanden 495
sal@@ 495
steps 495
wear 495
Essen 494
Everybody 494
coral 494
driven 494
fashion 494
gain 494
gefunden 494
ho@@ 494
liches 494
sexual 494
soci@@ 494
000 493
Collect 493
Leader 493
anderer 493
flies 493
mathematics 493
unseres 493
bereit 492
followed 492
lin@@ 492
profound 492
spec@@ 492
Cor@@ 491
bio@@ 491
principles 491
stark 491
Anderson 490
Ihren 490
currently 490
def@@ 490
electric 490
est@@ 490
kon@@ 490
pat@@ 490
tively 490
2,000 489
mentioned 489
professional 489
sister 489
Fähigkeit 488
Schul@@ 488
liebe 488
proud 488
45 487
Soil 487
Wasser@@ 487
Zu@@ 487
draußen 487
hasn 487
rid 487
versus 487
Limited 486
Wisdom 486
fair 486
galaxies 486
wearing 486
whom 486
Department 485
Kar@@ 485
ining 485
surprised 485
Arms 484
Equivalent 484
Would 484
mouth 484
mu@@ 484
Australia 483
Interface 483
Lady 483
covered 483
elt 483
fication 483
fold 483
scheint 483
spot 483
Each 482
Economics 482
Mor@@ 482
Restaurant 482
dern 482
gh@@ 482
represent 482
ud@@ 482
unless 482
1@@ 481
Budget 481
Farm 481
Fell 481
Grund@@ 481
Laptop 481
Player 481
Trick 481
kes 481
worried 481
Gedanken 480
Honest 480
Instrument 480
Letter 480
Organic 480
Tradition 480
businesses 480
ey@@ 480
harder 480
inner 480
ished 480
planning 480
Prozess 479
Thanks 479
Tomorrow 479
Wissen 479
invited 479
ls 479
puts 479
600 478
Bo@@ 478
Mensch 478
Ro@@ 478
Vehicle 478
ites 478
motion 478
Fields 477
Steve 477
desire 477
distribution 477
homes 477
ming 477
received 477
sieben 477
Charles 476
Tages 476
bare 476
bewusst 476
bist 476
designing 476
everyday 476
moon 476
sel@@ 476
2008 475
Dinner 475
Paul 475
Poetry 475
invest 475
languages 475
legen 475
sche 475
sehe 475
ven 475
Target 474
grown 474
Daily 473
Modell 473
September 473
Vi@@ 473
alize 473
ering 473
meat 473
warm 473
möchten 472
Brazil 471
Closed 471
Equipment 471
Wide 471
beide 471
classroom 471
Chair 470
Debate 470
Krieg 470
leg 470
Bread 469
Krebs 469
Zahl 469
gelernt 469
watched 469
Church 468
Everything 468
Hidden 468
Rain 468
drawing 468
ga@@ 468
launched 468
soldiers 468
survival 468
ulation 468
warming 468
weather 468
NASA 467
Pages 467
Photos 467
Safety 467
Spirit 467
Studio 467
Threat 467
molecule 467
gs 466
guten 466
magazine 466
schen 466
users 466
wers 466
Independent 465
Statistics 465
absolute 465
agriculture 465
avoid 465
bing 465
link 465
manage 465
tical 465
Contact 464
Mark 464
Technologien 464
Wissenschaftler 464
ase 464
clinical 464
exists 464
gebracht 464
por@@ 464
75 463
Boden 463
Ne@@ 463
Winter 463
ack 463
anstatt 463
erschaffen 463
existence 463
gewesen 463
he@@ 463
mel@@ 463
tough 463
Camp 462
Super@@ 462
cked 462
fourth 462
gegeben 462
identify 462
Associated 461
Bear 461
Verbindung 461
alism 461
größten 461
mache 461
passieren 461
seriously 461
thinks 461
tragen 461
Inter@@ 460
multiple 460
sol@@ 460
ths 460
ven@@ 460
2010 459
Arts 459
Lo@@ 459
cards 459
ced 459
civilization 459
flu@@ 459
ologists 459
sentence 459
toward 459
Co@@ 458
Reihe 458
bling 458
fliegen 458
plane 458
seat 458
&apos;@@ 457
Bits 457
Luft 457
Operation 457
erklären 457
funktionieren 457
kilometers 457
normally 457
schwierig 457
Date 456
Germany 456
adult 456
cent 456
fe 456
hopefully 456
pres@@ 456
shapes 456
Muster 455
Signals 455
chi@@ 455
engineer 455
paint 455
tor@@ 455
ws 455
100,000 454
Darwin 454
Faith 454
Minister 454
YouTube 454
av@@ 454
flu 454
geworden 454
liber@@ 454
prevent 454
universal 454
Studenten 453
Tatsache 453
cognitive 453
compare 453
connections 453
increasingly 453
supp@@ 453
El@@ 452
chte 452
jemals 452
players 452
technical 452
Airplane 451
Su@@ 451
chain 451
dic@@ 451
ort 451
Joy 450
Ten 450
ash@@ 450
expression 450
processes 450
rural 450
article 449
gingen 449
leaves 449
schrieb 449
surprising 449
yesterday 449
Crime 448
Democratic 448
Richtung 448
Wahrheit 448
dra@@ 448
liked 448
ll@@ 448
sites 448
Kenya 447
caused 447
gro@@ 447
men@@ 447
ordinary 447
rein@@ 447
ung@@ 447
zehn 447
Dis@@ 446
Electrical 446
Element 446
Jahrhundert 446
Or@@ 446
appear 446
ori@@ 446
ours 446
property 446
scene 446
statt 446
v 446
Boston 445
Drink 445
analysis 445
beginnt 445
comfortable 445
experienced 445
glücklich 445
kleines 445
lichkeit 445
med 445
miteinander 445
saved 445
schlecht 445
äu@@ 445
Flag 444
Har@@ 444
Transformation 444
acht 444
ect 444
layer 444
nervous 444
opening 444
stimmt 444
3D 443
Advanced 443
Gender 443
Shoes 443
anfangen 443
generations 443
lunch 443
stood 443
struggle 443
20th 442
Gemeinschaft 442
Ger@@ 442
Last 442
Tons 442
accident 442
importance 442
wing 442
Anzahl 441
Gift 441
Letters 441
Situation 441
X 441
dimensions 441
lan@@ 441
regular 441
Br@@ 440
Mountains 440
Pakistan 440
Remote 440
awful 440
bekommt 440
brachte 440
producing 440
que 440
the@@ 440
Beat 439
Gesundheit 439
Michael 439
Voices 439
dealing 439
folks 439
geb@@ 439
ut 439
Artificial 438
Schritt 438
bre@@ 438
cken 438
driver 438
istic 438
leicht 438
ment@@ 438
principle 438
La@@ 437
spoke 437
aged 436
allein 436
conscious 436
eu@@ 436
ined 436
ir 436
losing 436
researchers 436
Movies 435
Nacht 435
day 435
facts 435
ited 435
laufen 435
pur@@ 435
Army 434
Britain 434
O 434
bei@@ 434
ise 434
ole 434
picked 434
sor@@ 434
Aufgabe 433
Stimme 433
Technik 433
calling 433
consequences 433
hadn 433
highest 433
marriage 433
son@@ 433
ta 433
20@@ 432
Al 432
Killing 432
damage 432
gezeigt 432
holes 432
ing-@@ 432
verbunden 432
Hall 431
Match 431
anger 431
ca@@ 431
continent 431
signs 431
arrived 430
convinced 430
niemals 430
sad 430
Europa 429
Healthcare 429
Option 429
considered 429
switch 429
uns@@ 429
Freund 428
grandmother 428
om 428
verwendet 428
wondering 428
Beach 427
Studie 427
Trials 427
aussehen 427
land@@ 427
met@@ 427
pped 427
reaction 427
Ihrem 426
Information 426
gap 426
lu@@ 426
microbes 426
Collection 425
Gi@@ 425
Umgebung 425
dots 425
exact 425
pen@@ 425
satellite 425
WAVES 424
expected 424
fle@@ 424
hu@@ 424
Method 423
Northern 423
Their 423
Um@@ 423
deeper 423
fra@@ 423
hoch@@ 423
ier@@ 423
kt 423
muscle 423
smell 423
sources 423
viruses 423
Rolle 422
Teile 422
Trip 422
cally 422
iled 422
serve 422
sofort 422
variety 422
2007 421
Accept 421
Angeles 421
Bur@@ 421
Chemistry 421
Exchange 421
Veränderung 421
cloud 421
genannt 421
heavy 421
our@@ 421
relevant 421
Arbeits@@ 420
Chemicals 420
Ihrer 420
Interview 420
Keeping 420
Messages 420
Vorstellung 420
bright 420
entfernt 420
facing 420
gold 420
increasing 420
prove 420
weltweit 420
Platz 419
Res@@ 419
according 419
empty 419
feelings 419
formed 419
metaphor 419
ologist 419
possibilities 419
suggest 419
well-@@ 419
Inspiration 418
Platform 418
Transition 418
anti-@@ 418
ban@@ 418
cat@@ 418
kleiner 418
ride 418
wachsen 418
Construction 417
Lie 417
Organized 417
weg@@ 417
Bedeutung 416
Enter 416
Please 416
Städte 416
alte 416
exercise 416
jemanden 416
whenever 416
Dry 415
Dynamic 415
Größe 415
Japanese 415
illegal 415
machten 415
Addition 414
Po@@ 414
Ter@@ 414
benutzt 414
controlled 414
corruption 414
fac@@ 414
kers 414
Hälfte 413
Mit@@ 413
curious 413
heraus@@ 413
strength 413
F 412
Rates 412
id@@ 412
ren@@ 412
rooms 412
Bildung 411
Herausforderung 411
II 411
Medium 411
bald 411
enen 411
evil 411
hoffe 411
mögen 411
nachdenken 411
vis@@ 411
Ent@@ 410
L 410
dinosaurs 410
ects 410
houses 410
iPhone 410
long-term 410
selling 410
ständig 410
Credit 409
Islam 409
beste 409
experts 409
ici@@ 409
innen 409
psych@@ 409
soziale 409
underneath 409
Kraft 408
broke 408
down@@ 408
fail 408
sides 408
Am@@ 407
Copy 407
Emerging 407
Paris 407
X@@ 407
cat 407
iz@@ 407
requires 407
sharks 407
zeige 407
Does 406
Institution 406
Meinung 406
Thoughts 406
mal@@ 406
pre-@@ 406
tested 406
21 405
Express 405
Fellow 405
Fossil 405
Fund 405
Her@@ 405
Resource 405
Wikipedia 405
direct 405
einander 405
far@@ 405
fli@@ 405
gener@@ 405
grand@@ 405
hei@@ 405
rational 405
relatively 405
sed 405
vote 405
year 405
17@@ 404
Canada 404
Library 404
Unit 404
ba@@ 404
capture 404
lei@@ 404
Erfolg 403
Essential 403
Phase 403
Union 403
characters 403
hab@@ 403
intellectual 403
stupid 403
Brown 402
Fi@@ 402
Realität 402
actions 402
carefully 402
emotion 402
generate 402
ha 402
mm@@ 402
roughly 402
teeth 402
valuable 402
Adam 401
Amerika 401
Marketing 401
bekam 401
bekannt 401
cents 401
cu@@ 401
erreicht 401
setting 401
th-@@ 401
voll 401
är@@ 401
Cross 400
Entscheidungen 400
Garden 400
Tur@@ 400
battery 400
graduate 400
verloren 400
15@@ 399
Click 399
Row 399
Tri@@ 399
added 399
carrying 399
cultures 399
finish 399
kan@@ 399
location 399
testen 399
wal@@ 399
K 398
Maschine 398
ender 398
epidemic 398
fewer 398
junge 398
lying 398
member 398
represents 398
Bubble 397
Chicken 397
Haupt@@ 397
Mathematical 397
Organ 397
defined 397
erung 397
motor 397
rapidly 397
trotzdem 397
1.@@ 396
3,000 396
anzu@@ 396
breath 396
ech@@ 396
ination 396
komplett 396
release 396
Anyway 395
GDP 395
Pal@@ 395
Stone 395
WorldWide 395
behaviors 395
convince 395
heit 395
hy@@ 395
liegen 395
vulnerable 395
Bel@@ 394
Could 394
Humor 394
Molecular 394
sensitive 394
victims 394
BG 393
Straße 393
ble@@ 393
dachten 393
ection 393
effectively 393
gay 393
geschrieben 393
heutzutage 393
hide 393
prepared 393
properties 393
specifically 393
voller 393
cameras 392
definitely 392
ern@@ 392
gleichzeitig 392
movements 392
require 392
situations 392
sprach 392
Atoms 391
Gravity 391
absolut 391
acc@@ 391
aler 391
define 391
gegenüber 391
gest@@ 391
gestellt 391
lifetime 391
plate 391
rare 391
sli@@ 391
Double 390
Firma 390
Transport 390
Wake 390
engaged 390
ion 390
n-@@ 390
sonst 390
2005 389
Cortex 389
Do@@ 389
Foto 389
ach@@ 389
bottle 389
cer@@ 389
ner@@ 389
ography 389
wann 389
App 388
Bereich 388
Shark 388
Sicherheit 388
Steel 388
bro@@ 388
depends 388
gekommen 388
primary 388
zeit 388
Diet 387
Mitte 387
Ph@@ 387
emissions 387
ff 387
finde 387
größer 387
hurt 387
interessiert 387
ke@@ 387
schneller 387
ships 387
vers@@ 387
Kon@@ 386
Organs 386
Robert 386
Sonne 386
cure 386
nahmen 386
Pollen 385
Reise 385
Terrorism 385
att@@ 385
bul@@ 385
interests 385
promise 385
tin@@ 385
tz@@ 385
Teams 384
appropriate 384
geboren 384
länger 384
protected 384
test 384
Sugar 383
Tor@@ 383
cker 383
ecosystem 383
maps 383
ops 383
poem 383
Forschung 382
Gra@@ 382
Round 382
Symbol 382
inf@@ 382
lets 382
pping 382
ähnlich 382
2009 381
Ber@@ 381
Blocks 381
Du 381
Nor@@ 381
Protection 381
affected 381
domin@@ 381
geschieht 381
ire 381
released 381
sending 381
Aging 380
Fähigkeiten 380
Karte 380
Struktur 380
Zahlen 380
cutting 380
politicians 380
previous 380
sei@@ 380
therapy 380
wert 380
BOMB 379
Dogs 379
Man 379
Thomas 379
Vereinigten 379
Wood 379
auszu@@ 379
einfache 379
generally 379
toll 379
Clip 378
Gewalt 378
Kitchen 378
Lu@@ 378
Telescope 378
bewegt 378
components 378
herauszufinden 378
however 378
mortality 378
remain 378
reward 378
risks 378
sample 378
tim@@ 378
wards 378
0@@ 377
Brothers 377
Centers 377
Oberfläche 377
Southern 377
Windows 377
gearbeitet 377
introduced 377
offensichtlich 377
weiter@@ 377
Bas@@ 376
Bet@@ 376
Coal 376
Crash 376
Kl@@ 376
Krankheit 376
discussion 376
eller 376
fing 376
tiert 376
val@@ 376
Beziehung 375
Since 375
Sir 375
cher@@ 375
cing 375
ear 375
lieben 375
nennt 375
performing 375
roof 375
techniques 375
tig 375
Pleasure 374
Wert 374
emp@@ 374
low-@@ 374
regions 374
Chip 373
Honor 373
Hydrogen 373
Pollution 373
Trend 373
buying 373
ears 373
gemeinsam 373
oren 373
speci@@ 373
sts 373
tan@@ 373
Applied 372
Monkey 372
ash 372
kte 372
las@@ 372
mention 372
neues 372
solved 372
uni@@ 372
Hunger 371
awareness 371
gar@@ 371
ky 371
mirror 371
normalerweise 371
recorded 371
replace 371
spectrum 371
H 370
Ladies 370
Lessons 370
Muslim 370
Radiation 370
Records 370
ationen 370
bilden 370
introduce 370
ought 370
relative 370
roads 370
ward 370
Fresh 369
Obama 369
alist 369
col@@ 369
employees 369
goals 369
perform 369
plan@@ 369
processing 369
ve@@ 369
Conservation 368
Factors 368
Lay 368
Trillion 368
apping 368
combination 368
mistake 368
Ergebnis 367
Scared 367
gesamte 367
nar@@ 367
nis@@ 367
sahen 367
tieren 367
worlds 367
8@@ 366
Islands 366
Markt 366
Na@@ 366
Nach@@ 366
Tod 366
U.K. 366
User 366
ams 366
außerdem 366
tries 366
Laboratory 365
Queen 365
ce@@ 365
environments 365
fangen 365
oms 365
sozialen 365
sta@@ 365
Au@@ 364
Fishing 364
In 364
Naturally 364
Runs 364
invention 364
pan@@ 364
sted 364
ug@@ 364
.com 363
0,000 363
Ding 363
Pla@@ 363
Pole 363
Profit 363
begannen 363
bestimmt 363
evolutionary 363
off@@ 363
pf@@ 363
reached 363
wichtiger 363
Hu@@ 362
Survey 362
Tra@@ 362
dan@@ 362
mp@@ 362
Designs 361
Disaster 361
Hoffnung 361
Print 361
dadurch 361
großer 361
newspaper 361
pun@@ 361
rap@@ 361
wieder@@ 361
21st 360
Pacific 360
Perception 360
Pu@@ 360
Shop 360
ausge@@ 360
battle 360
eri@@ 360
goods 360
innovative 360
ners 360
pu@@ 360
ts@@ 360
typically 360
ue 360
Consumer 359
Features 359
besch@@ 359
factor 359
führte 359
kannst 359
tes@@ 359
ular 359
Fat 358
Manufacturing 358
Master 358
NOTES 358
alization 358
aten 358
bit@@ 358
ery 358
ish@@ 358
metal 358
möglichen 358
san@@ 358
wichtige 358
Acting 357
Fehler 357
Russia 357
Schulen 357
Yet 357
hen 357
include 357
laugh 357
neighbors 357
pulled 357
required 357
sitzen 357
wussten 357
Correct 356
Illness 356
Sports 356
Vehicles 356
denkt 356
marine 356
sobald 356
staff 356
thanks 356
Arab 355
arbeitet 355
new@@ 355
tag 355
tel@@ 355
Perhaps 354
Radical 354
ately 354
dropped 354
ecting 354
efficiency 354
forests 354
literature 354
person@@ 354
zz@@ 354
Fiction 353
Proteins 353
Ros@@ 353
Ta@@ 353
Transportation 353
langsam 353
log@@ 353
personally 353
psychology 353
tape 353
än@@ 353
übrigens 353
Activities 352
ame 352
ide@@ 352
keeps 352
len@@ 352
traveling 352
van@@ 352
» 352
65 351
Destruction 351
Films 351
Partners 351
Sen@@ 351
attacks 351
bes 351
ette 351
hoping 351
sophisticated 351
ultimate 351
Diabetes 350
Gesicht 350
Hits 350
Si@@ 350
beobachten 350
collaboration 350
miss 350
passierte 350
practical 350
singing 350
wis@@ 350
22 349
Herz@@ 349
Memories 349
Smile 349
Songs 349
amounts 349
bestimmten 349
existing 349
form 349
ier 349
meaningful 349
parent 349
ren 349
sem@@ 349
win@@ 349
Dra@@ 348
Hospitals 348
Kosten 348
Mechanical 348
Regeln 348
encourage 348
exc@@ 348
fundamentally 348
occur 348
technological 348
tered 348
ther 348
Alter 347
Authority 347
Peak 347
Polio 347
Zone 347
außer 347
ball@@ 347
bleibt 347
combined 347
functions 347
fällt 347
los@@ 347
läuft 347
ort@@ 347
participate 347
ron@@ 347
sun@@ 347
vergessen 347
« 347
14@@ 346
Court 346
Haiti 346
Ku@@ 346
Tail 346
ancestors 346
baren 346
former 346
gers 346
gte 346
hom@@ 346
not@@ 346
nu@@ 346
occurred 346
solving 346
style 346
Button 345
France 345
Swimming 345
algorithms 345
arbeitete 345
eggs 345
flat 345
foundation 345
fri@@ 345
gegangen 345
increased 345
infected 345
int 345
mechanism 345
operate 345
opinion 345
physically 345
productive 345
secure 345
senses 345
16@@ 344
19 344
Amazon 344
Microsoft 344
PRIZE 344
Sk@@ 344
Sustainability 344
Toy 344
pers 344
stronger 344
unusual 344
visible 344
vol@@ 344
vorher 344
wine 344
zumindest 344
-S@@ 343
Bau@@ 343
Bevölkerung 343
Ju@@ 343
Mile 343
Musical 343
Neu@@ 343
Sal@@ 343
Soul 343
five-@@ 343
wel@@ 343
27 342
Five 342
Ghana 342
Mitgefühl 342
Nobody 342
Wahl 342
ange@@ 342
fla@@ 342
joke 342
mistakes 342
privacy 342
relate 342
versuchte 342
yp@@ 342
Bücher 341
Das 341
GPS 341
Spiel@@ 341
Tat 341
Topic 341
While 341
ach 341
izing 341
rat@@ 341
underwater 341
12@@ 340
Congress 340
Demokratie 340
Launch 340
Piano 340
Sees 340
amp@@ 340
ansehen 340
atten@@ 340
burning 340
folgen 340
horse 340
ierten 340
sec@@ 340
Pop 339
Yeah 339
aries 339
computing 339
detect 339
empathy 339
equally 339
false 339
pack 339
stre@@ 339
sunlight 339
thin 339
Aufmerksamkeit 338
Chaos 338
Electronic 338
Gruppen 338
Orte 338
cooking 338
mes 338
stands 338
theme 338
DH 337
Min@@ 337
Monaten 337
Preis 337
aufzu@@ 337
gel 337
gesprochen 337
hält 337
load 337
skill 337
ures 337
Eastern 336
Grab 336
Hardware 336
Psychological 336
Tonight 336
cord 336
cos@@ 336
deine 336
doubt 336
ett 336
falling 336
ite 336
somewhat 336
wars 336
Korea 335
accurate 335
afternoon 335
gende 335
kt@@ 335
largely 335
pon@@ 335
shoot 335
suppose 335
tigen 335
tives 335
Den@@ 334
Illusion 334
Kontrolle 334
Milk 334
Silk 334
Vortrag 334
ehr@@ 334
indic@@ 334
quiet 334
taste 334
Globe 333
Lake 333
Medien 333
Mix 333
Okay 333
beg@@ 333
bessere 333
collected 333
constant 333
cow 333
drives 333
fying 333
ll 333
richtige 333
A-@@ 332
Housing 332
Theorie 332
conver@@ 332
figures 332
großes 332
potentially 332
Animation 331
Display 331
advice 331
allowing 331
dle 331
doors 331
dramatic 331
eless 331
holen 331
hr@@ 331
lat@@ 331
length 331
mag@@ 331
nor 331
sho@@ 331
silence 331
verbessern 331
verlassen 331
Sets 330
Unfortunately 330
Wei@@ 330
ace 330
aging 330
conclusion 330
lebt 330
narrative 330
Confidence 329
Fake 329
Texas 329
and-@@ 329
ong 329
remind 329
richtigen 329
versuche 329
weak 329
13@@ 328
Golf 328
Overall 328
Score 328
Tracking 328
best@@ 328
generated 328
volume 328
Election 327
Presence 327
Seiten 327
Solid 327
Stelle 327
combine 327
concrete 327
creature 327
einzelne 327
ement 327
feeding 327
novel 327
percentage 327
verb@@ 327
Exploration 326
Foundation 326
Krankheiten 326
Stream 326
aufgrund 326
bas@@ 326
birthday 326
frei 326
violent 326
Architects 325
Channel 325
Explained 325
Frame 325
Rocket 325
Umwelt 325
aspect 325
ast 325
human@@ 325
lit@@ 325
photographs 325
23 324
All 324
Brief 324
Mos@@ 324
Motivation 324
ane 324
conversations 324
crowd 324
enable 324
enh@@ 324
explanation 324
gewinnen 324
spring 324
95 323
Amerikaner 323
Grid 323
N 323
Subjects 323
Welt@@ 323
arti@@ 323
ational 323
az@@ 323
bones 323
boring 323
chose 323
ep 323
früher 323
moder@@ 323
oh@@ 323
post-@@ 323
tin 323
So@@ 322
Stanford 322
U.N. 322
Zugang 322
enz@@ 322
flo@@ 322
ihres 322
leider 322
sions 322
statement 322
tru@@ 322
Angry 321
Curve 321
Engagement 321
ases 321
boxes 321
framework 321
insight 321
liquid 321
non@@ 321
outcome 321
providing 321
remains 321
Beispiele 320
Hei@@ 320
Manhattan 320
circumstances 320
clever 320
ented 320
ost 320
shame 320
stayed 320
swim 320
yer 320
2004 319
Defense 319
Shall 319
Whale 319
irgendwo 319
ord@@ 319
organism 319
surrounded 319
Air@@ 318
Applications 318
Educational 318
Lin@@ 318
abstract 318
berg 318
closely 318
counter@@ 318
diejenigen 318
ien 318
iling 318
joined 318
kaum 318
measured 318
mid@@ 318
nowhere 318
oned 318
onen 318
sha@@ 318
standards 318
wo@@ 318
As@@ 317
Grenzen 317
Orten 317
Tier 317
ater 317
breathe 317
conf@@ 317
eben 317
flew 317
ften 317
fur@@ 317
limits 317
va 317
Appreciate 316
Comfort 316
Cup 316
Danger 316
Gebiet 316
Sensors 316
Snow 316
Tagen 316
Uganda 316
Uhr 316
Wire 316
cal@@ 316
don@@ 316
faced 316
fed 316
vel@@ 316
writer 316
Computer@@ 315
Elephant 315
Fingers 315
Instruments 315
Plans 315
ales 315
anschauen 315
assume 315
decline 315
entrepreneurs 315
expand 315
grain 315
infinite 315
options 315
pair 315
verlieren 315
werfen 315
Hang 314
Konzept 314
Nachricht 314
aufge@@ 314
bet 314
erlaubt 314
hip 314
nose 314
presentation 314
sy 314
well-being 314
Christmas 313
Embrace 313
Evening 313
Hi 313
Spaß 313
String 313
Universität 313
an-@@ 313
ances 313
det 313
erzählt 313
functional 313
inj@@ 313
neben 313
ows 313
shaped 313
sodass 313
un 313
Einfluss 312
Flowers 312
Toxic 312
bat 312
claim 312
collapse 312
cs 312
economists 312
error 312
erzeugen 312
horrible 312
oning 312
papers 312
symptoms 312
vari@@ 312
Basically 311
Ebene 311
Linked 311
Pl@@ 311
Puzzle 311
Samples 311
aussieht 311
challenging 311
deaths 311
dge 311
ells 311
hinaus 311
passionate 311
provided 311
pt 311
tain 311
tired 311
ture 311
26 310
Architect 310
Dan 310
Hero 310
bestimmte 310
bike 310
ishing 310
prime 310
tall 310
tet 310
Egypt 309
Kilometer 309
Nachrichten 309
Route 309
Ser@@ 309
Tr@@ 309
Upper 309
Vergangenheit 309
ands 309
clothes 309
continued 309
hört 309
ina 309
nachzudenken 309
pers@@ 309
remove 309
tisch 309
wat@@ 309
whales 309
32 308
Clock 308
Frank 308
Gun 308
Software 308
Ti@@ 308
Wirklichkeit 308
Worte 308
atory 308
ered 308
funding 308
hear@@ 308
keiner 308
kn@@ 308
tage 308
val 308
At@@ 307
Blick 307
German 307
Greenhouse 307
Recording 307
capitalism 307
de-@@ 307
ebenso 307
hotel 307
ization 307
klein 307
obsessed 307
split 307
Cave 306
Climb 306
Land@@ 306
Selbst@@ 306
Trends 306
Wa@@ 306
attempt 306
cop@@ 306
internal 306
poll@@ 306
rit@@ 306
ros@@ 306
sowohl 306
three-dimensional 306
wherever 306
zoom 306
Armut 305
Bag 305
Do 305
Menschheit 305
Muslims 305
Nest 305
Pilot 305
Rob@@ 305
Rocks 305
Spezies 305
ads 305
chart 305
co-@@ 305
conventional 305
entscheiden 305
je@@ 305
traf 305
Application 304
Gentlemen 304
Gerät 304
Jo@@ 304
Logic 304
abzu@@ 304
autism 304
ential 304
iles 304
k-@@ 304
km 304
rechts 304
unknown 304
villages 304
19th 303
About 303
Acts 303
Bra@@ 303
Ergebnisse 303
Gr@@ 303
June 303
Mer@@ 303
causing 303
contrast 303
cour@@ 303
dancing 303
determine 303
dozen 303
entweder 303
gesamten 303
geschehen 303
handle 303
height 303
reference 303
tac@@ 303
transformed 303
vation 303
yed 303
Agenda 302
Bush 302
Sohn 302
Zeit@@ 302
director 302
extent 302
gew@@ 302
identical 302
neuro@@ 302
nt 302
post 302
season 302
solchen 302
spielt 302
tat@@ 302
wheel 302
Cartoon 301
Kinder@@ 301
Politik 301
Reverse 301
Sar@@ 301
bli@@ 301
laughter 301
m-@@ 301
mut@@ 301
root 301
schaut 301
sin@@ 301
Input 300
Medizin 300
Personen 300
Programm 300
Sc@@ 300
Shake 300
behavioral 300
dense 300
elte 300
gef@@ 300
jungen 300
ka 300
lag 300
mess 300
oll@@ 300
paradigm 300
parallel 300
placed 300
policies 300
pros@@ 300
represented 300
warten 300
yst@@ 300
zeigte 300
Agency 299
BF 299
Du@@ 299
Lei@@ 299
agreed 299
befinden 299
head@@ 299
pure 299
reichen 299
stu@@ 299
suggests 299
sy@@ 299
technique 299
verstanden 299
Orbit 298
Spinal 298
Ur@@ 298
Younger 298
acy 298
cent@@ 298
dasselbe 298
hilft 298
lau@@ 298
odd 298
ological 298
riesige 298
50,000 297
Burn 297
Clinic 297
Gates 297
Künstler 297
Met@@ 297
PM 297
Rat 297
Studien 297
all-@@ 297
centuries 297
clouds 297
ected 297
entdecken 297
gaben 297
gefragt 297
ideal 297
pay@@ 297
produzieren 297
pushing 297
raising 297
severe 297
unlike 297
worker 297
Gulf 296
Kollegen 296
Pra@@ 296
Remember 296
Talent 296
admit 296
atives 296
connecting 296
hos@@ 296
nenne 296
retten 296
sammeln 296
struck 296
taten 296
2006 295
Filter 295
Heroes 295
Higgs 295
International 295
Martin 295
Regierungen 295
Sekunden 295
Stock 295
blog 295
eng@@ 295
floating 295
gend 295
ig 295
lon@@ 295
messen 295
suffer 295
wieso 295
Arguments 294
Baby 294
Courage 294
Da@@ 294
Familien 294
Gel@@ 294
Lifestyle 294
Oxford 294
Produkt 294
Rio 294
SS 294
bal@@ 294
bin@@ 294
breathing 294
busy 294
cas@@ 294
disappear 294
distributed 294
erg@@ 294
fixed 294
implications 294
measuring 294
poorest 294
viol@@ 294
Cl@@ 293
Emergency 293
Feature 293
Meetings 293
Schüler 293
Typ 293
amerikanischen 293
ences 293
globalen 293
großartige 293
proof 293
scar@@ 293
tischer 293
touched 293
treating 293
ulate 293
zwei@@ 293
Awesome 292
Patent 292
Sicht 292
dot 292
hab 292
sum@@ 292
Farmer 291
Gray 291
Monat 291
Silicon 291
corals 291
einzelnen 291
equation 291
existed 291
hor@@ 291
hörte 291
increases 291
mammals 291
neu@@ 291
populations 291
sters 291
verbinden 291
wondered 291
,000 290
2001 290
Corporate 290
Everyone 290
Hel@@ 290
Linie 290
Methode 290
Other 290
Really 290
classes 290
ek 290
frankly 290
ili@@ 290
leisten 290
nor@@ 290
permanent 290
selection 290
soft 290
stelle 290
succeed 290
unmöglich 290
untersuchen 290
welcher 290
Cur@@ 289
Rück@@ 289
acks 289
disorders 289
gten 289
lea@@ 289
recognition 289
telephone 289
80s 288
Ba@@ 288
Fa@@ 288
Sweden 288
Truck 288
Tube 288
ain 288
atur@@ 288
automatically 288
co 288
density 288
drinking 288
herum@@ 288
offered 288
ration 288
via 288
wider@@ 288
250 287
Firmen 287
Global 287
Hello 287
Judge 287
Origami 287
Tea 287
Tricks 287
Wireless 287
ack@@ 287
carried 287
directions 287
economies 287
engaging 287
estimate 287
gleich@@ 287
inten@@ 287
reaching 287
sweet 287
till 287
tung 287
vaccine 287
Öl 287
Phrase 286
Sha@@ 286
Tom 286
gens 286
op 286
oper@@ 286
parking 286
radi@@ 286
utes 286
800 285
Finance 285
Latin 285
Ni@@ 285
Oxytocin 285
Prinzip 285
Systeme 285
Was 285
Welcome 285
angle 285
careful 285
depend 285
locked 285
monkeys 285
pit@@ 285
resistance 285
Breaking 284
Classic 284
Colony 284
Desk 284
Florida 284
consumers 284
eten 284
flower 284
großartig 284
handelt 284
interactions 284
invent 284
setzt 284
sphere 284
spricht 284
surgeon 284
tig@@ 284
ton@@ 284
ute 284
Cash 283
Habitat 283
Herz 283
Journalist 283
Morgen 283
U.S 283
Wi@@ 283
erstens 283
grows 283
mystery 283
net 283
st-@@ 283
ßen 283
20,000 282
Bewusstsein 282
Cre@@ 282
Get 282
Ordnung 282
Outcomes 282
Pflanzen 282
Quarter 282
Tier@@ 282
Y 282
apped 282
arian 282
controlling 282
dramatically 282
expert 282
harm 282
hat@@ 282
herausfinden 282
males 282
missed 282
nan@@ 282
obesity 282
properly 282
replic@@ 282
savings 282
schaft 282
schicken 282
öffentlichen 282
Auswirkungen 281
Scan 281
Sight 281
Toilet 281
Tre@@ 281
aps 281
arbeite 281
ation@@ 281
chem@@ 281
eig@@ 281
erzählte 281
fertig 281
geh@@ 281
tem@@ 281
top@@ 281
transparent 281
wählen 281
Dorf 280
U 280
Wal@@ 280
celebrate 280
dependent 280
ements 280
entdeckt 280
erst@@ 280
iness 280
leg@@ 280
schlagen 280
selben 280
Axis 279
January 279
Receive 279
Ressourcen 279
Rising 279
Spider 279
aded 279
attached 279
component 279
divided 279
elles 279
enemy 279
entschieden 279
four-@@ 279
hil@@ 279
immune 279
loop 279
mainly 279
mice 279
printing 279
ric 279
robotic 279
shoulder 279
spreading 279
tik 279
tured 279
tures 279
70s 278
85 278
Legacy 278
Mis@@ 278
Ray 278
außerhalb 278
diverse 278
ermöglicht 278
extrem 278
herstellen 278
intuitive 278
ließ 278
mus@@ 278
neither 278
ored 278
organize 278
overcome 278
penguins 278
super 278
title 278
ual 278
Beziehungen 277
Concepts 277
Give 277
Kom@@ 277
Und 277
Wachstum 277
avi@@ 277
aw@@ 277
bers 277
cho@@ 277
commun@@ 277
ehrlich 277
hol@@ 277
ju@@ 277
particle 277
schließen 277
versch@@ 277
zweiten 277
195@@ 276
33 276
700 276
Bay 276
Cook 276
Curiosity 276
Sinne 276
Te@@ 276
Tour 276
betrachtet 276
fuels 276
näher 276
ony 276
philosophy 276
practices 276
prices 276
tal@@ 276
usual 276
-up 275
2003 275
Hollywood 275
Interactive 275
Pen@@ 275
Pool 275
TED@@ 275
Umwelt@@ 275
alizing 275
borders 275
bot@@ 275
entered 275
painful 275
prototype 275
scary 275
tax 275
typ@@ 275
Fotos 274
Himmel 274
Intense 274
Nobel 274
Rescue 274
Surveillance 274
abuse 274
amm@@ 274
pe 274
sum 274
Die 273
Hy@@ 273
Mathematik 273
Monitor 273
Poster 273
Red 273
antibiotics 273
appeared 273
appears 273
cooperation 273
destroyed 273
forming 273
fühlte 273
letztes 273
maintain 273
plenty 273
sam@@ 273
steigen 273
tasks 273
120 272
All@@ 272
Bell 272
Grateful 272
Groß@@ 272
ak 272
alter 272
extinct 272
inequality 272
ive 272
kten 272
surely 272
traveled 272
ually 272
Border 271
Hände 271
Papier 271
Wired 271
alis@@ 271
befindet 271
dam@@ 271
dignity 271
entertainment 271
exp@@ 271
laughing 271
precisely 271
presented 271
Bakterien 270
Eis@@ 270
Formen 270
Nummer 270
Peter 270
Versuch 270
Walks 270
alität 270
bus@@ 270
ca 270
expectations 270
oph@@ 270
usion 270
vessels 270
wir@@ 270
Alzheimer 269
Bühne 269
Congo 269
Grass 269
Kingdom 269
Up 269
bles 269
interessante 269
ious 269
komme 269
le-@@ 269
license 269
loc@@ 269
multi-@@ 269
oes 269
prefer 269
raus 269
raw 269
reg@@ 269
rep@@ 269
ro 269
scre@@ 269
shut 269
signed 269
Fe@@ 268
Roots 268
Smoke 268
Units 268
academic 268
actor 268
amed 268
ann@@ 268
eling 268
elling 268
ever 268
ick 268
reported 268
sculpture 268
ugly 268
unclear 268
Exhibition 267
Gründe 267
Ozean 267
Powers 267
behave 267
clos@@ 267
depending 267
digen 267
elled 267
ethical 267
lovely 267
mid-@@ 267
ny 267
schützen 267
thrown 267
translate 267
ump@@ 267
vo@@ 267
whereas 267
work 267
60s 266
Natur@@ 266
Recovery 266
Script 266
Zeug 266
commitment 266
desto 266
exten@@ 266
friendly 266
interacting 266
personality 266
positions 266
spiritual 266
stellten 266
voll@@ 266
water@@ 266
zweitens 266
Ärzte 266
Bee 265
Blow 265
Bre@@ 265
Federal 265
Liste 265
MRI 265
Shooting 265
bo 265
dioxide 265
ef@@ 265
enten 265
erleben 265
fol@@ 265
latest 265
neun 265
rating 265
rund 265
tering 265
Divide 264
Ko@@ 264
Landes 264
Tech 264
Ton 264
blin@@ 264
ca. 264
constructed 264
dest 264
dritte 264
einzigen 264
elten 264
firm 264
hearts 264
hel@@ 264
hur@@ 264
ities 264
jene 264
linear 264
mur@@ 264
pul@@ 264
recognized 264
ress 264
rever@@ 264
sil@@ 264
so-called 264
tip 264
unk@@ 264
year-olds 264
Beginn 263
Bri@@ 263
Farbe 263
Laser 263
Mat@@ 263
Me@@ 263
Not@@ 263
Organisation 263
Prot@@ 263
Silent 263
Sport 263
Transparency 263
committed 263
concern 263
cy@@ 263
echte 263
eter 263
exploring 263
fr@@ 263
imagined 263
jail 263
ko@@ 263
les@@ 263
plays 263
relations 263
ya 263
yl@@ 263
zunächst 263
Don@@ 262
Nahrung 262
Norden 262
Section 262
War@@ 262
deswegen 262
grandfather 262
mehrere 262
pocket 262
Apartment 261
Arm 261
Atlantic 261
Intuition 261
Jim 261
Joe 261
Ker@@ 261
Recht 261
ans@@ 261
ceiling 261
contrac@@ 261
drawn 261
erfahren 261
furniture 261
half-@@ 261
hyper@@ 261
ind@@ 261
magnetic 261
multi@@ 261
muscles 261
paintings 261
produces 261
Gesundheits@@ 260
Islamic 260
Mi@@ 260
Million 260
Neuroscience 260
Sand@@ 260
accessible 260
bisher 260
cheaper 260
cro@@ 260
customers 260
fascinated 260
guter 260
involves 260
lernte 260
pack@@ 260
productivity 260
sau@@ 260
schätzen 260
ty@@ 260
2,@@ 259
Arzt 259
Circuit 259
Embedded 259
Escape 259
Meer 259
Stunde 259
Suit 259
anthrop@@ 259
cute 259
dein 259
duc@@ 259
ensch@@ 259
geschaffen 259
invite 259
liver 259
orange 259
pled 259
rice 259
tied 259
unexpected 259
90s 258
Africans 258
Derek 258
Entscheidung 258
Fifth 258
Fra@@ 258
Hill 258
Neuron 258
Zeitpunkt 258
achieved 258
ang 258
chocolate 258
geführt 258
incentives 258
pile 258
powered 258
rief 258
the-@@ 258
Architektur 257
Bang 257
Cambridge 257
Charity 257
Interesse 257
Likes 257
Star@@ 257
Straßen 257
Sub@@ 257
ama 257
anz@@ 257
aspects 257
by-@@ 257
disorder 257
document 257
dre@@ 257
ete 257
funded 257
gutes 257
ook 257
open-source 257
opposed 257
pra@@ 257
virtually 257
wanting 257
wenige 257
25@@ 256
28 256
Ac@@ 256
Be 256
Bezug 256
Bob 256
Crying 256
Dirty 256
Erfahrungen 256
Freiheit 256
Lösungen 256
Narrator 256
Por@@ 256
Rei@@ 256
Tower 256
beh@@ 256
erfolgreich 256
eting 256
gol@@ 256
mas@@ 256
poli@@ 256
-like 255
Behandlung 255
Journal 255
Mittel 255
Mode 255
My@@ 255
Objekt 255
abilities 255
accepted 255
ading 255
ana 255
aside 255
bicycle 255
chen@@ 255
disappeared 255
dominant 255
ebenfalls 255
einzu@@ 255
ema@@ 255
erin 255
erinnere 255
insurance 255
osp@@ 255
ough 255
repair 255
scht 255
stattdessen 255
tionen 255
trifft 255
0-@@ 254
50@@ 254
Cal@@ 254
Dimension 254
Eis 254
Gehirns 254
Governance 254
Jungen 254
Medikamente 254
Saturn 254
US-@@ 254
conflicts 254
cut@@ 254
dent 254
echt 254
endlich 254
isten 254
mentally 254
pal@@ 254
Artikel 253
High 253
Out@@ 253
Slides 253
Underground 253
air@@ 253
bt 253
colleague 253
fic@@ 253
gles 253
lich@@ 253
owned 253
Fortune 252
Indeed 252
Jahrhunderts 252
Jesus 252
Simulation 252
Teenager 252
Variation 252
Wand 252
backwards 252
erwarten 252
frozen 252
gehe 252
ial 252
privilege 252
removed 252
rot 252
seek 252
sible 252
stations 252
table 252
vely 252
volunteers 252
wohin 252
Communications 251
Far@@ 251
Haus@@ 251
Pri@@ 251
Reputation 251
heutigen 251
hundert 251
ignore 251
iring 251
iting 251
jemandem 251
ki@@ 251
neighborhoods 251
nte 251
repeat 251
ries 251
tausende 251
treten 251
zo@@ 251
000-@@ 250
29 250
Dictionary 250
Equality 250
Gesetz 250
Gri@@ 250
Native 250
Resolution 250
Toys 250
Verständnis 250
gung 250
hardly 250
mail 250
rats 250
rely 250
sheep 250
sn@@ 250
trotz 250
verst@@ 250
weisen 250
Football 249
Geographic 249
Iron 249
Tap 249
actors 249
adding 249
consistent 249
destroy 249
dor@@ 249
essed 249
exposed 249
foot@@ 249
getroffen 249
hielt 249
polic@@ 249
scales 249
strategies 249
symmetry 249
vier@@ 249
views 249
zation 249
Cas@@ 248
Garage 248
Heaven 248
Je@@ 248
Limit 248
Pol@@ 248
Reef 248
Reform 248
Veränderungen 248
advertising 248
collecting 248
continues 248
cyber@@ 248
earn 248
educated 248
ei 248
essing 248
eth@@ 248
gan@@ 248
ills 248
ismus 248
lens 248
stable 248
wür@@ 248
Drill 247
Fre@@ 247
Green 247
Is 247
La 247
Lift 247
Probability 247
Punkte 247
Seed 247
Smith 247
bitten 247
bon@@ 247
dolphins 247
langen 247
ney 247
red@@ 247
spr@@ 247
sym@@ 247
syn@@ 247
unterstützen 247
verkaufen 247
ville 247
washing 247
ye 247
Human 246
Kamera 246
Mad@@ 246
Zeiten 246
bias 246
biologists 246
captured 246
chest 246
darkness 246
ee 246
electronics 246
historical 246
ik 246
mechanics 246
offen 246
official 246
searching 246
theories 246
tile 246
universities 246
weise 246
Homo 245
Pause 245
Tears 245
chosen 245
dedicated 245
distant 245
gut@@ 245
hour 245
hungry 245
imagin@@ 245
inspiring 245
qui@@ 245
seien 245
zei@@ 245
Anonymous 244
Facial 244
Fan 244
Kal@@ 244
Mad 244
Reaktion 244
Seeds 244
Synthetic 244
T-@@ 244
Wege 244
Wesen 244
Worten 244
Yorker 244
contribute 244
dish 244
drove 244
dur@@ 244
hydro@@ 244
itable 244
nehme 244
schlechte 244
tation 244
tioned 244
,@@ 243
Banks 243
Demonstration 243
Flip 243
Geist 243
Initiative 243
Knee 243
Verantwortung 243
Wörter 243
alists 243
capita 243
chs 243
efforts 243
fire@@ 243
gedacht 243
genutzt 243
globally 243
hinein 243
offen@@ 243
provides 243
speaker 243
tief 243
unterschiedliche 243
usi@@ 243
Baseball 242
Dar@@ 242
Eric 242
Kin@@ 242
Mary 242
Me 242
New@@ 242
Origin 242
Tank 242
amongst 242
ards 242
balloon 242
ckt 242
cla@@ 242
dive 242
frage 242
frei@@ 242
geschafft 242
laid 242
microscope 242
mm 242
simplicity 242
soli@@ 242
3.@@ 241
Ak@@ 241
Eigenschaften 241
Em@@ 241
Fer@@ 241
Ki@@ 241
Lea@@ 241
Matrix 241
Projekte 241
Restaurants 241
aches 241
brauchte 241
dro@@ 241
einfachen 241
electro@@ 241
equ@@ 241
essence 241
finds 241
geschah 241
kb 241
oldest 241
optimistic 241
pil@@ 241
pointed 241
rank 241
spoken 241
sto@@ 241
super-@@ 241
ult 241
Öl@@ 241
194@@ 240
Auge 240
Es 240
Footprint 240
Handy 240
Jack 240
Ka@@ 240
Les@@ 240
Netzwerk 240
Smoking 240
To@@ 240
affordable 240
anxiety 240
behandeln 240
blu@@ 240
brechen 240
earthquake 240
elsewhere 240
eness 240
ental 240
evolve 240
hire 240
ingredients 240
layers 240
long-@@ 240
mic 240
onal 240
passing 240
pound 240
sheet 240
shock 240
stat@@ 240
unglaubliche 240
visited 240
As 239
Bars 239
County 239
Laden 239
Lighting 239
Rose 239
Wil@@ 239
apparently 239
arten 239
barely 239
boundaries 239
controls 239
domestic 239
fruit 239
gather 239
hey 239
ids 239
konzentrieren 239
mil@@ 239
nahe 239
sch 239
served 239
stages 239
suicide 239
thers 239
öffnen 239
Gore 238
Hoch@@ 238
Krankenhaus 238
Mikro@@ 238
Operations 238
Realm 238
Regime 238
Teilen 238
aden 238
beer 238
drehen 238
explo@@ 238
herself 238
kämpfen 238
loud 238
my@@ 238
perf@@ 238
shi@@ 238
tiles 238
tis 238
wn 238
ß 238
Ahnung 237
Ben 237
Blogs 237
Cartoons 237
Genius 237
Gl@@ 237
Ignorance 237
Kan@@ 237
Mall 237
Männern 237
Nets 237
Poet 237
Review 237
Taliban 237
adapt 237
advance 237
angefangen 237
bet@@ 237
bia 237
existiert 237
frequency 237
gebe 237
größere 237
letting 237
ologen 237
picking 237
polar 237
pregnant 237
reefs 237
robust 237
spots 237
spreche 237
stops 237
verbringen 237
verrückt 237
4,000 236
Bible 236
Elections 236
Freunden 236
Intervention 236
Mas@@ 236
Shadow 236
cha@@ 236
dow@@ 236
eck 236
etic 236
fort@@ 236
innovations 236
posing 236
reflect 236
seas 236
viral 236
visu@@ 236
Balls 235
Interpretation 235
Make 235
Maschinen 235
Mut@@ 235
Produkte 235
Sticks 235
Städten 235
Symbols 235
aircraft 235
contains 235
eline 235
predic@@ 235
pupp@@ 235
stecken 235
thro@@ 235
vir@@ 235
Antworten 234
C. 234
Explosion 234
Go@@ 234
Jewish 234
Mu@@ 234
Scratch 234
Shrimp 234
Tieren 234
Zelle 234
bau@@ 234
beliefs 234
determined 234
eigenes 234
extract 234
fan@@ 234
holds 234
identified 234
iger 234
mechanisms 234
methods 234
ols 234
perpet@@ 234
react 234
seats 234
surfaces 234
tragedy 234
z.B. 234
zen@@ 234
zer 234
Audio 233
Chips 233
Dynamics 233
Materialien 233
Nähe 233
afterwards 233
ander 233
ersch@@ 233
formen 233
gene 233
granted 233
informed 233
ores 233
stein 233
Diagram 232
Expansion 232
Freude 232
Kampf 232
Licht@@ 232
Sam@@ 232
Strom 232
Terror 232
Werte 232
Zustand 232
dated 232
dung 232
fort 232
frühen 232
fühlt 232
initial 232
Cap@@ 231
Hor@@ 231
Law 231
Pa@@ 231
Schönheit 231
Sur@@ 231
Westen 231
ai 231
algorithm 231
announced 231
boo@@ 231
calculate 231
cement 231
contract 231
crops 231
crucial 231
database 231
delivered 231
erfunden 231
fahr@@ 231
fluid 231
fro@@ 231
hervor@@ 231
inst@@ 231
isolated 231
ließen 231
mining 231
musicians 231
passwords 231
romantic 231
tiger 231
vertical 231
vorbei 231
2011 230
Alexander 230
Dust 230
Howard 230
Italy 230
Mike 230
Mil@@ 230
Parties 230
Spitze 230
US 230
Verfügung 230
analy@@ 230
cel@@ 230
consume 230
enz 230
globale 230
inging 230
inspire 230
integrated 230
lief 230
motor@@ 230
neural 230
oring 230
primitive 230
speakers 230
terrorists 230
tz 230
yers 230
yours 230
1960 229
Daten@@ 229
Ear@@ 229
Gehirn@@ 229
Honey 229
class 229
dennoch 229
eds 229
fest@@ 229
hart 229
life-@@ 229
lungs 229
mol@@ 229
physicist 229
tar@@ 229
verhalten 229
0.@@ 228
Cra@@ 228
Figuring 228
Guide 228
Körper@@ 228
Pre@@ 228
Rush 228
Rwanda 228
Verbindungen 228
Whether 228
ased 228
asi@@ 228
ba 228
by@@ 228
capability 228
chimpanzees 228
circles 228
enn@@ 228
fte 228
genden 228
improvement 228
inhab@@ 228
kor@@ 228
lands 228
mented 228
pink 228
pol@@ 228
pulling 228
recru@@ 228
sely 228
spi@@ 228
suggesting 228
weiterhin 228
wichtigsten 228
10-@@ 227
Blue 227
Englisch 227
Kunst@@ 227
Luft@@ 227
Parks 227
Plot 227
Teenagers 227
aming 227
beeinflusst 227
chairs 227
demonstrate 227
depressed 227
diver@@ 227
eled 227
fühle 227
inc@@ 227
kontrollieren 227
oid 227
resp@@ 227
richer 227
sicherlich 227
stell@@ 227
strangers 227
wider 227
zahlen 227
zt 227
Bäume 226
CRY 226
Elite 226
Mate 226
Naked 226
Reports 226
Session 226
allerdings 226
begonnen 226
colon@@ 226
deb@@ 226
erzeugt 226
irgendwann 226
oli@@ 226
rop@@ 226
2012 225
Bl@@ 225
Bor@@ 225
Crossing 225
Economist 225
Lied 225
alities 225
anim@@ 225
answered 225
ath@@ 225
bags 225
category 225
city 225
edges 225
einge@@ 225
ests 225
eted 225
flexible 225
fähig 225
happier 225
herzustellen 225
las 225
ler@@ 225
ooh 225
ope 225
ov@@ 225
participants 225
pig 225
riesigen 225
state 225
stro@@ 225
treatments 225
Leidenschaft 224
Mac@@ 224
Rot@@ 224
accidents 224
breaks 224
criminals 224
diving 224
fes@@ 224
lecture 224
painted 224
pin@@ 224
politischen 224
proper 224
sales 224
somit 224
tuna 224
uncomfortable 224
wind@@ 224
writers 224
é 224
Airport 223
Arctic 223
Aut@@ 223
Dig 223
Gelegenheit 223
Herzen 223
Myth 223
Pen 223
Unterschiede 223
appe@@ 223
author 223
ente 223
founded 223
größeren 223
ham 223
omin@@ 223
pris@@ 223
runter 223
seines 223
worthy 223
ys@@ 223
zug 223
Ansatz 222
Büro 222
Copyright 222
Grad 222
Stores 222
Suche 222
Traum 222
Trucks 222
Tür 222
autonomous 222
cen@@ 222
chapter 222
characteristics 222
conclude 222
cru@@ 222
diagnosed 222
dozens 222
drei@@ 222
emerge 222
extrac@@ 222
fiber 222
gli@@ 222
headed 222
includes 222
kenne 222
meal 222
neighbor 222
pace 222
photography 222
quit 222
reagieren 222
reduced 222
reduction 222
ridiculous 222
separated 222
thick 222
une 222
vable 222
é@@ 222
überleben 222
Attitude 221
Beijing 221
Gar@@ 221
Gor@@ 221
Gro@@ 221
Index 221
Klasse 221
Mark@@ 221
Soviet 221
Tisch 221
Vielfalt 221
Vol@@ 221
Werkzeuge 221
concei@@ 221
dreht 221
habt 221
handeln 221
letztendlich 221
mos@@ 221
predictions 221
reich 221
with@@ 221
Biologie 220
Bronx 220
Chief 220
Haut 220
Injury 220
Open 220
ant@@ 220
billi@@ 220
blo@@ 220
dence 220
ful@@ 220
g-@@ 220
geschichte 220
ple@@ 220
protecting 220
thy 220
ush 220
wash 220
2050 219
Arabic 219
CEO 219
Can@@ 219
Cro@@ 219
Ethiopia 219
Geschäft 219
Glamour 219
Manager 219
Netz 219
Neuro@@ 219
Obviously 219
RB 219
Rapid 219
Shopping 219
Youth 219
advis@@ 219
agencies 219
agricultural 219
ations@@ 219
blame 219
briefly 219
collec@@ 219
consequence 219
criminal 219
dat@@ 219
debt 219
erlauben 219
eure 219
gue 219
handed 219
hanging 219
impacts 219
kraft 219
naja 219
ologie 219
owner 219
phot@@ 219
photographer 219
precise 219
produziert 219
revenue 219
smallpox 219
unlikely 219
ution 219
weak@@ 219
B. 218
Denken 218
Fahr@@ 218
Farben 218
Lau@@ 218
Som@@ 218
V 218
bly 218
cast 218
ecosystems 218
fragten 218
klingt 218
ounds 218
pitch 218
returned 218
row 218
run@@ 218
älter 218
20-@@ 217
Expanding 217
Geb@@ 217
Industries 217
Soap 217
auen 217
aufgenommen 217
ead 217
edi@@ 217
encounter 217
experim@@ 217
gehalten 217
liz@@ 217
mig@@ 217
opp@@ 217
politische 217
wit@@ 217
Dinosaur 216
Infrastruktur 216
Isn 216
Keyboard 216
Wir 216
Zentrum 216
aktiv 216
ani 216
attract 216
dagegen 216
depth 216
elected 216
elev@@ 216
glasses 216
haft 216
ions 216
iti@@ 216
kosten 216
maker 216
mamm@@ 216
opens 216
originally 216
reminded 216
resistant 216
wa 216
Bubbles 215
Gegen@@ 215
Kreativität 215
club 215
drivers 215
ermöglichen 215
ffs 215
globalization 215
itation 215
landed 215
pac@@ 215
short@@ 215
throwing 215
täglich 215
vital 215
zieht 215
Administration 214
Col@@ 214
Elephants 214
Flugzeug 214
Foods 214
Gefühle 214
Grandchildren 214
Output 214
Resilience 214
Show 214
Sisters 214
Typen 214
Wildlife 214
eld 214
gestalten 214
gilt 214
minim@@ 214
ome 214
oun@@ 214
ox@@ 214
silly 214
sub-@@ 214
wet@@ 214
Bürger 213
Clay 213
Des@@ 213
Gases 213
Gesellschaften 213
Inches 213
Koran 213
Nelson 213
Opfer 213
W 213
brave 213
clients 213
confident 213
darf 213
daughters 213
eding 213
elimin@@ 213
facility 213
glad 213
ium 213
laut 213
lined 213
measures 213
nisse 213
nurses 213
physi@@ 213
predicted 213
pushed 213
scores 213
sentences 213
threw 213
tribes 213
virtu@@ 213
Bes@@ 212
Citizen 212
I.@@ 212
Jahres 212
Johnson 212
Osten 212
Shanghai 212
Win@@ 212
assumptions 212
behandelt 212
caring 212
cont@@ 212
davor 212
discoveries 212
dorthin 212
heiten 212
lessly 212
rechten 212
rig@@ 212
storm 212
underlying 212
werk 212
2002 211
Abend 211
Cats 211
Del@@ 211
Dress 211
Fisch 211
Hackers 211
October 211
Soldaten 211
The@@ 211
erstaunlich 211
gek@@ 211
gling 211
hängt 211
mann 211
primarily 211
programming 211
stream 211
sucht 211
tik@@ 211
verkauft 211
Delhi 210
Ford 210
Gras 210
Ho@@ 210
Jazz 210
Pap@@ 210
Slums 210
adap@@ 210
aling 210
artistic 210
beeinflussen 210
begun 210
bestehen 210
eping 210
extended 210
fought 210
ierung 210
investieren 210
otic 210
rarely 210
serving 210
targets 210
translated 210
vermutlich 210
wed 210
wächst 210
Blut@@ 209
Finanz@@ 209
Geschwindigkeit 209
Laptops 209
Wor@@ 209
amerikanische 209
articles 209
attractive 209
belong 209
bit 209
bizarre 209
cence 209
einfacher 209
erstellen 209
esses 209
experimental 209
genocide 209
motiv@@ 209
popul@@ 209
shots 209
skull 209
stand@@ 209
was@@ 209
Botschaft 208
Brian 208
Ca@@ 208
Limb 208
Masse 208
Meeres@@ 208
Mol@@ 208
Tochter 208
Tumors 208
alleine 208
announ@@ 208
bow 208
dollar 208
entsteht 208
fal@@ 208
ge-@@ 208
inevitable 208
intensive 208
kno@@ 208
let@@ 208
mun@@ 208
net@@ 208
num@@ 208
peac@@ 208
rays 208
reveal 208
sons 208
1990s 207
30,000 207
Architectural 207
Boss 207
Druck 207
Graphic 207
Nord@@ 207
Regel 207
Risiko 207
Robotics 207
analyze 207
bel 207
betrifft 207
burg 207
dieselbe 207
emerged 207
enses 207
entering 207
entstehen 207
farming 207
floo@@ 207
kostet 207
lage 207
lasst 207
lebten 207
narrow 207
nung 207
or-@@ 207
panels 207
partly 207
post@@ 207
promote 207
sensory 207
shelter 207
spar@@ 207
wil@@ 207
wings 207
äre 207
ün@@ 207
2.@@ 206
Agent 206
Alien 206
Bears 206
Campus 206
Lincoln 206
Medi@@ 206
Panel 206
Prize 206
Shell 206
Spe@@ 206
Vietnam 206
WISE 206
consciously 206
cou@@ 206
elderly 206
entwickelten 206
external 206
focusing 206
ganzes 206
ires 206
objective 206
observation 206
regul@@ 206
reicht 206
scale 206
sits 206
sle@@ 206
sorgen 206
spectacular 206
stairs 206
stellung 206
supported 206
tension 206
ändert 206
30-@@ 205
FBI 205
Miracle 205
Palm 205
Refugee 205
Sciences 205
Uncle 205
dimensional 205
entschied 205
forgotten 205
früh 205
gonna 205
ige 205
lebte 205
senden 205
teil@@ 205
tions@@ 205
univers@@ 205
verfolgen 205
wiederum 205
Bedingungen 204
Fabric 204
Fenster 204
Henry 204
Killer 204
Mem@@ 204
Opera 204
Pi@@ 204
Radi@@ 204
Sekunde 204
Somebody 204
Sterne 204
Trans@@ 204
Transfer 204
Tsunami 204
Ziele 204
behalten 204
documents 204
fted 204
harvest 204
helpful 204
hoffentlich 204
impro@@ 204
leverage 204
micro-@@ 204
modi@@ 204
nten 204
ody 204
pairs 204
permission 204
proposed 204
pursue 204
pyramid 204
satellites 204
stor@@ 204
tribe 204
weapon 204
weder 204
1970s 203
1998 203
Array 203
Atmosphäre 203
District 203
Fluss 203
Fran@@ 203
Physik 203
buried 203
chtet 203
covering 203
difficulty 203
ensure 203
erforschen 203
fts 203
fun@@ 203
hing 203
hitting 203
imagery 203
meistens 203
nen@@ 203
saß 203
sleeping 203
smarter 203
sty 203
suggested 203
tie 203
wen@@ 203
August 202
Crack 202
Devil 202
Ed@@ 202
Fortschritt 202
Labs 202
Mt 202
Sensor 202
Terrorist 202
Vergleich 202
Zusammenhang 202
ander@@ 202
autom@@ 202
ch-@@ 202
ct 202
endes 202
expres@@ 202
halte 202
hea@@ 202
magical 202
ol 202
participation 202
pla@@ 202
steckt 202
teil 202
verursacht 202
voc@@ 202
wissenschaftliche 202
wood 202
48 201
Instant 201
Interviews 201
Lawyer 201
Leonardo 201
Mandela 201
Mess@@ 201
Organisationen 201
Sum@@ 201
additional 201
adopted 201
aring 201
ashed 201
collabor@@ 201
colonies 201
competitive 201
cons@@ 201
expectancy 201
explaining 201
flows 201
gathering 201
ham@@ 201
ile 201
merely 201
photographed 201
radically 201
shocked 201
struggling 201
subtle 201
weiteres 201
wert@@ 201
whatsoever 201
zog 201
1990 200
Fr@@ 200
Frog 200
Imaging 200
Junge 200
NGOs 200
Rolling 200
Senior 200
Should 200
Unterstützung 200
benötigen 200
cer 200
dialogue 200
elli@@ 200
ency 200
entlang 200
failing 200
nam@@ 200
natürliche 200
osen 200
perceive 200
soldier 200
sowie 200
veröffentlicht 200
wirst 200
1980s 199
Cheese 199
Domain 199
Einkommen 199
Komplexität 199
Sacred 199
Vision 199
act 199
biodiversity 199
bucks 199
degra@@ 199
dev@@ 199
enter 199
illi@@ 199
kom@@ 199
lawyers 199
lie@@ 199
lied 199
lling 199
mark@@ 199
ool 199
ou 199
schafft 199
zufällig 199
überzeugt 199
Expertise 198
Großbritannien 198
Menschen@@ 198
Pizza 198
Reg@@ 198
Russian 198
Saudi 198
Scanner 198
Sti@@ 198
arrive 198
completed 198
contain 198
cros@@ 198
ent-@@ 198
extend 198
fragile 198
gence 198
glo@@ 198
heben 198
immediate 198
instructions 198
interestingly 198
openness 198
oten 198
pump 198
refer 198
refugees 198
restor@@ 198
spiel 198
unbelievable 198
Ben@@ 197
Contemporary 197
February 197
Gefängnis 197
Kommunikation 197
Mittel@@ 197
Nation 197
Shi@@ 197
Universums 197
Wunsch 197
arbeit 197
backs 197
ban 197
beschreiben 197
climbing 197
cope 197
demon@@ 197
erinnert 197
exponential 197
extra@@ 197
fabulous 197
favor 197
foot 197
iest 197
liberal 197
ok 197
prot@@ 197
rent 197
selbst@@ 197
sively 197
slavery 197
steigt 197
successfully 197
tap@@ 197
tolle 197
translation 197
tune 197
van 197
zeit@@ 197
Christian 196
Expedition 196
Fisch@@ 196
Love 196
Neuronen 196
Profile 196
af@@ 196
alls 196
arm@@ 196
asses 196
brush 196
cies 196
fen@@ 196
fiel 196
fragt 196
hunderte 196
kommunizieren 196
lions 196
rein 196
sandwich 196
shifting 196
sitzt 196
tom@@ 196
tot@@ 196
unk 196
ush@@ 196
6,000 195
Carolina 195
Greek 195
Hyper@@ 195
Materie 195
None 195
Norway 195
Pat@@ 195
Portion 195
Representation 195
Sauce 195
Without 195
Zusammenarbeit 195
ades 195
cell@@ 195
description 195
elegant 195
erstes 195
estimated 195
fathers 195
frac@@ 195
geln 195
infection 195
invested 195
ishes 195
kick 195
methane 195
perfekt 195
plug 195
power@@ 195
ppen 195
pretend 195
printed 195
reli@@ 195
reliable 195
rä@@ 195
schöne 195
skeleton 195
stroke 195
suffered 195
surprisingly 195
upset 195
vacuum 195
vy 195
ör@@ 195
Download 194
Empire 194
Fällen 194
Gesetze 194
Highway 194
Hom@@ 194
Mag@@ 194
Smooth 194
Soup 194
Ton@@ 194
Who 194
alt@@ 194
beschäftigt 194
boom 194
dige 194
entation 194
fraction 194
gestern 194
herausgefunden 194
immer@@ 194
implic@@ 194
mixed 194
ous@@ 194
point 194
sul@@ 194
ulated 194
unbedingt 194
wheelchair 194
-to-@@ 193
55 193
Ausbildung 193
Broad 193
Brooklyn 193
Familien@@ 193
Fernsehen 193
Intelligenz 193
Klimawandel 193
Luck 193
Modelle 193
Moore 193
Restore 193
Rock@@ 193
Sin@@ 193
Wandel 193
William 193
Witness 193
confused 193
dahin 193
dig@@ 193
dolphin 193
echten 193
fits 193
gy 193
lautet 193
mul@@ 193
möglicherweise 193
neur@@ 193
ppe 193
rebuild 193
refer@@ 193
rul@@ 193
ser 193
shelf 193
shor@@ 193
spon@@ 193
tivity 193
zellen 193
0.000 192
Hemisphere 192
Herausforderungen 192
Motors 192
Planet 192
Turkey 192
Wing 192
ambi@@ 192
back 192
buchstäblich 192
cable 192
charges 192
choosing 192
comment 192
compelling 192
conc@@ 192
constitu@@ 192
dation 192
dete 192
evi@@ 192
fancy 192
fortunate 192
ital 192
ität 192
located 192
nurse 192
posi@@ 192
prepare 192
prev@@ 192
raped 192
ref@@ 192
replicate 192
satz 192
seeking 192
strongly 192
susp@@ 192
uncertainty 192
unternehmen 192
verdienen 192
welchen 192
ße 192
47 191
Ah@@ 191
Comics 191
Einzel@@ 191
Konferenz 191
Lernen 191
Objekte 191
Orchestra 191
Pres@@ 191
SP 191
Sommer 191
St. 191
TED-@@ 191
asp@@ 191
basiert 191
cake 191
capabilities 191
closing 191
discuss 191
gewonnen 191
ground@@ 191
high@@ 191
kümmern 191
microbial 191
modernen 191
nah 191
nochmal 191
priv@@ 191
remembered 191
sou@@ 191
stranger 191
suspect 191
threats 191
tisches 191
tour@@ 191
umgehen 191
37 190
Academy 190
Frei@@ 190
Fuß 190
Kevin 190
Kor@@ 190
Kur@@ 190
Loch 190
Nerve 190
Problemen 190
Recycling 190
SW 190
Scenario 190
aggressive 190
arbeiteten 190
blog@@ 190
durchgeführt 190
feld 190
fo@@ 190
gelangen 190
igen 190
ign@@ 190
mation 190
mittel 190
sheets 190
stimul@@ 190
tends 190
thin@@ 190
unterschiedlichen 190
utter 190
x-@@ 190
40@@ 189
Association 189
Coll@@ 189
Cricket 189
Gründen 189
Selbst 189
Zusammen@@ 189
acked 189
anz 189
authorities 189
besitzen 189
bezahlen 189
collaborative 189
convert 189
eal 189
eigen@@ 189
enabled 189
engineered 189
enter@@ 189
erklärt 189
expecting 189
experiencing 189
golden 189
gradually 189
iges 189
kar@@ 189
lex@@ 189
lieber 189
magnitude 189
mindestens 189
morality 189
mysterious 189
needle 189
organizing 189
ounding 189
paralyzed 189
plain 189
professionals 189
publish 189
ration@@ 189
selber 189
sting 189
tackle 189
threshold 189
wichtigste 189
Armed 188
Deck 188
Gentleman 188
Hormone 188
Mama 188
Put 188
Wald 188
affects 188
amin@@ 188
anischen 188
au 188
barkeit 188
cycles 188
ed-@@ 188
eff@@ 188
gezogen 188
hinter@@ 188
host 188
i-@@ 188
ktion 188
lear@@ 188
passive 188
physician 188
pleasant 188
realizing 188
secre@@ 188
shar@@ 188
static 188
verse 188
work@@ 188
z. 188
Beine 187
Curriculum 187
Gemeinde 187
Großteil 187
Guns 187
Höhe 187
Institutionen 187
November 187
Pride 187
Quest 187
Rainforest 187
Spin 187
Wh@@ 187
Winning 187
abstra@@ 187
acqu@@ 187
ape 187
benötigt 187
bloß 187
bru@@ 187
dürfen 187
egg 187
ians 187
lob@@ 187
ote 187
rin@@ 187
scheinen 187
sozusagen 187
tem 187
transplant 187
ump 187
unt@@ 187
Asteroid 186
Boot 186
Chile 186
Corn 186
December 186
Feuer 186
Feynman 186
Officer 186
Vertrauen 186
arily 186
audi@@ 186
beneath 186
clear@@ 186
coun@@ 186
currency 186
demands 186
deserve 186
enables 186
eres 186
erh@@ 186
glamorous 186
hunting 186
included 186
kap@@ 186
losen 186
occurs 186
ownership 186
physicists 186
promised 186
reactions 186
remaining 186
rivers 186
rup@@ 186
shipping 186
sized 186
structural 186
tiv@@ 186
tone 186
traditions 186
victim 186
warning 186
woke 186
Can 185
Cat@@ 185
Geräte 185
Holy 185
Hum@@ 185
Installation 185
Jan@@ 185
Kat@@ 185
Kunden 185
Probe 185
Qualität 185
Santa 185
Sil@@ 185
Stephen 185
adi@@ 185
bed@@ 185
besides 185
bled 185
boun@@ 185
capit@@ 185
chances 185
conservative 185
contin@@ 185
dear 185
erwartet 185
genen 185
improved 185
initially 185
lebens@@ 185
lichsten 185
materi@@ 185
mold 185
nes@@ 185
profoundly 185
shit 185
six-@@ 185
trajectory 185
unable 185
urge 185
verbreitet 185
vulnerability 185
widely 185
woher 185
yle 185
ßt 185
42 184
Babys 184
Blut 184
Bro@@ 184
Canopy 184
Chef 184
Hacker 184
Ide@@ 184
Mel@@ 184
Portrait 184
Tracks 184
Waters 184
anderem 184
angles 184
daß 184
deutlich 184
extinction 184
get@@ 184
glaubt 184
grat@@ 184
hohen 184
industri@@ 184
legt 184
lock 184
nation@@ 184
osis 184
printer 184
staying 184
synchron@@ 184
tful 184
ull 184
vit@@ 184
za 184
20. 183
Accounts 183
Augen@@ 183
Bienen 183
Cosmic 183
Dr@@ 183
Dung 183
Garbage 183
Is@@ 183
Milliarde 183
Relation 183
Strategic 183
Technology 183
aked 183
assumption 183
berei@@ 183
classi@@ 183
clean@@ 183
compassionate 183
counting 183
cross-@@ 183
drone 183
errors 183
facilities 183
flowing 183
footage 183
gaps 183
hauptsächlich 183
homework 183
hypothesis 183
incentive 183
influenced 183
investing 183
jo@@ 183
jumped 183
kil@@ 183
kin@@ 183
leiden 183
odds 183
organiz@@ 183
passt 183
peoples 183
planes 183
poly@@ 183
preserve 183
qualities 183
rubber 183
survived 183
teile 183
tendency 183
thesis 183
trash 183
trägt 183
volle 183
zeichnen 183
ären 183
öffentliche 183
übertragen 183
&apos;clock 182
3,@@ 182
Demographic 182
Energie@@ 182
Gol@@ 182
Industrie 182
Spielen 182
Wahrscheinlichkeit 182
approaches 182
arri@@ 182
detailed 182
el-@@ 182
enth@@ 182
established 182
face 182
fires 182
gods 182
kable 182
linken 182
mort@@ 182
nights 182
regret 182
sever@@ 182
tausend 182
tete 182
traits 182
uted 182
vollständig 182
wea@@ 182
196@@ 181
36 181
April 181
Camps 181
Cotton 181
Cou@@ 181
Council 181
Detection 181
Engines 181
Extension 181
Fusion 181
Genetics 181
Hong 181
Insekten 181
Karriere 181
Kills 181
Lord 181
Mother 181
Phantom 181
Strukturen 181
Werkzeug 181
adventure 181
comments 181
conducted 181
eck@@ 181
entwerfen 181
folding 181
illa 181
imm@@ 181
ind 181
jährigen 181
mood 181
musician 181
neuer 181
nächstes 181
observe 181
ora 181
rupt 181
schaften 181
schaute 181
substance 181
tier@@ 181
tle 181
töten 181
vollkommen 181
1999 180
50s 180
Berlin 180
Dem@@ 180
Gallery 180
Harbor 180
Jh 180
Monterey 180
Ticket 180
Watson 180
Whatever 180
apes 180
ath 180
bombs 180
burned 180
but@@ 180
cep@@ 180
clothing 180
colored 180
cus 180
dictat@@ 180
entwickelte 180
etten 180
exception 180
falsche 180
fron@@ 180
gathered 180
genetically 180
getötet 180
improving 180
inger 180
insights 180
instantly 180
ly@@ 180
middle-@@ 180
neat 180
nutrients 180
ow-@@ 180
pigs 180
pot@@ 180
pper 180
purposes 180
rough 180
secrets 180
significantly 180
simultaneously 180
ulating 180
wealthy 180
weiteren 180
worms 180
190@@ 179
Amy 179
Ausdruck 179
Benjamin 179
Bildern 179
Drittel 179
Entrepreneur 179
Fische 179
Fur@@ 179
Herr 179
Lieblings@@ 179
Tunnel 179
Zeichen 179
ari 179
bestimmen 179
channels 179
comparison 179
enge 179
factories 179
frustrated 179
fty 179
halt 179
insect 179
lernt 179
lit 179
mindset 179
minus 179
mitten 179
ound 179
reducing 179
schw@@ 179
seri@@ 179
starb 179
steal 179
tiges 179
tue 179
vergleichen 179
verwandeln 179
Bom@@ 178
Dec@@ 178
Discipline 178
Drones 178
Filme 178
Forschungs@@ 178
Hirn@@ 178
Kontakt 178
Mus@@ 178
Phänomen 178
Rituals 178
Sharp 178
Tony 178
Waffen 178
anten@@ 178
ck-@@ 178
dial 178
fs 178
könnt 178
lin 178
nuts 178
pandemic 178
stolz 178
test@@ 178
tus 178
utz@@ 178
vel 178
zy 178
überrascht 178
2030 177
Ban@@ 177
Bend 177
Courses 177
Dilemma 177
Ecke 177
Erinnerung 177
Frieden 177
Gefahr 177
Jungs 177
Karten 177
Leistung 177
Wirtschafts@@ 177
absor@@ 177
aled 177
analogy 177
arians 177
asks 177
categories 177
civic 177
command 177
connects 177
einsetzen 177
excl@@ 177
explains 177
gesetzt 177
god 177
grandparents 177
innocent 177
ition 177
judgment 177
lli@@ 177
logical 177
loses 177
medication 177
morgen 177
neutral 177
obstacles 177
optimism 177
orders 177
outer 177
pointing 177
praktisch 177
prop@@ 177
rape 177
remained 177
sacrifice 177
schlag 177
sexy 177
socially 177
subway 177
supporting 177
thri@@ 177
versions 177
weiss 177
Arthur 176
Atom@@ 176
Barrier 176
Bug 176
Cri@@ 176
Dopamine 176
Ges@@ 176
Harry 176
Kontext 176
Nonprofit 176
Pan@@ 176
Peers 176
Terrain 176
agreement 176
alternatives 176
beha@@ 176
bert 176
bild 176
bottles 176
gotta 176
graphics 176
journalists 176
law@@ 176
pass@@ 176
pling 176
sand@@ 176
sprachen 176
threatened 176
tionally 176
tling 176
xi@@ 176
überzeugen 176
Bruno 175
Detroit 175
E.@@ 175
Es@@ 175
Fach@@ 175
File 175
Ink 175
LG 175
Makers 175
Sorgen 175
Spiele 175
Val@@ 175
bian 175
damn 175
divi@@ 175
drin 175
erhält 175
healthier 175
hinein@@ 175
hohe 175
infl@@ 175
interessieren 175
ints 175
kriegen 175
lers 175
ligh@@ 175
loads 175
main@@ 175
mate 175
mon 175
nett 175
rau@@ 175
salt 175
schn@@ 175
separ@@ 175
trac@@ 175
unprecedented 175
wen 175
72 174
Although 174
Clinton 174
Computation 174
Gegenteil 174
Gewicht 174
Identität 174
Polizei 174
Purple 174
Q@@ 174
Satz 174
Wel@@ 174
Wenn 174
adapted 174
aner 174
anten 174
atively 174
begeistert 174
bemerkt 174
branch 174
classrooms 174
coat 174
compete 174
dauert 174
drawings 174
eit 174
erster 174
females 174
gained 174
gender 174
höher 174
immun@@ 174
kürzlich 174
län@@ 174
manipul@@ 174
mt 174
normale 174
oth 174
owing 174
performed 174
reasonable 174
someday 174
tag@@ 174
tos@@ 174
trains 174
um-@@ 174
zogen 174
zählen 174
31 173
Album 173
Ameisen 173
Business 173
Hea@@ 173
Hin@@ 173
Nov@@ 173
Präsident 173
Rhythm 173
Silver 173
Sli@@ 173
Spain 173
Tiger 173
Titan 173
Tom@@ 173
Tropical 173
accum@@ 173
airplanes 173
ala@@ 173
anded 173
assemble 173
besseren 173
bieten 173
ckers 173
cle@@ 173
delivery 173
discovering 173
dressed 173
erer 173
fastest 173
fig@@ 173
ild@@ 173
interpre@@ 173
irgendetwas 173
kennt 173
legitimate 173
ore@@ 173
passen 173
prescri@@ 173
setzte 173
suck 173
theast 173
tress 173
uts 173
verbracht 173
wan@@ 173
200,000 172
Achievement 172
Aufgaben 172
Both 172
Continents 172
Customer 172
Dating 172
Ecological 172
Gear 172
Gesch@@ 172
Indians 172
Nin@@ 172
Perspektive 172
Profits 172
Ret@@ 172
Shakespeare 172
Teenage 172
assen 172
ativen 172
aver@@ 172
blank 172
brachten 172
eaten 172
erkannte 172
err@@ 172
erz@@ 172
erzähle 172
fördern 172
gelassen 172
gewisse 172
instinc@@ 172
ison 172
memor@@ 172
ogram 172
pic@@ 172
potent 172
reminds 172
schönen 172
simpli@@ 172
usive 172
uss 172
ust 172
wichtigen 172
worüber 172
ähnliche 172
2020 171
Ap@@ 171
Cliff 171
HIV-@@ 171
IBM 171
Jones 171
Little 171
March 171
SETI 171
Secondly 171
Sel@@ 171
Spanish 171
Sprachen 171
Stones 171
TK 171
Websites 171
Whereas 171
Wohn@@ 171
alcohol 171
astonishing 171
bau 171
believes 171
black@@ 171
bulb 171
catching 171
chtung 171
circuits 171
classical 171
concert 171
continuing 171
cook@@ 171
corporations 171
deten 171
excitement 171
fuhr 171
generous 171
interagieren 171
jährige 171
loaded 171
loves 171
minute 171
occasionally 171
resem@@ 171
spe@@ 171
tar 171
tubes 171
uring 171
verantwortlich 171
Bab@@ 170
Habit 170
Hon@@ 170
Hund 170
Massen@@ 170
Nick 170
Pray 170
Proportion 170
Rede 170
Stop 170
Str@@ 170
Wer@@ 170
brauchten 170
closest 170
dance 170
decor@@ 170
deinen 170
een 170
eingesetzt 170
entropy 170
fears 170
führten 170
gelesen 170
genauer 170
geschickt 170
gäbe 170
homeless 170
ht 170
isten@@ 170
jug@@ 170
lass 170
mentation 170
nec@@ 170
passenger 170
persu@@ 170
punkt 170
tent 170
vagina 170
verhindern 170
versuchten 170
vice 170
äs@@ 170
1950 169
1950s 169
Bla@@ 169
Bond 169
Dutch 169
Farms 169
Forscher 169
Habits 169
Heritage 169
Hintergrund 169
Items 169
L.A. 169
Landwirtschaft 169
Listen 169
Managers 169
Mushroom 169
Nar@@ 169
Royal 169
Sozial@@ 169
Speaks 169
Stability 169
Süd@@ 169
Themen 169
cular 169
cycl@@ 169
distinct 169
gehabt 169
gelöst 169
ight 169
kat@@ 169
milli@@ 169
mögliche 169
ord 169
ough@@ 169
poems 169
ques@@ 169
quot@@ 169
seitdem 169
sky@@ 169
starke 169
toler@@ 169
Aktivität 168
Charlie 168
Effekt 168
Gandhi 168
Hook 168
Impression 168
Lego 168
Mainstream 168
Musik@@ 168
No@@ 168
Pos@@ 168
Reserve 168
Sunday 168
Whit@@ 168
X-ray 168
applying 168
approaching 168
ark 168
bathroom 168
bir@@ 168
comedy 168
competi@@ 168
construc@@ 168
di 168
encouraged 168
eradic@@ 168
erlebt 168
excellent 168
explos@@ 168
fortunately 168
household 168
impressive 168
kre@@ 168
leap 168
licht 168
lim@@ 168
mission 168
monitoring 168
nearby 168
normalen 168
ongoing 168
opped 168
package 168
phenomena 168
prediction 168
recover 168
rhyth@@ 168
shed 168
shine 168
terribly 168
thumb 168
tized 168
tongue 168
tragic 168
transl@@ 168
vegetables 168
vessel 168
wes@@ 168
wires 168
wunderbare 168
yield 168
197@@ 167
96 167
Abraham 167
Andrew 167
Antarctica 167
Drew 167
Flug@@ 167
Gh@@ 167
Gold 167
Hacking 167
Jet 167
Moleküle 167
Schluss 167
Spieler 167
abhängig 167
appearance 167
arrested 167
ater@@ 167
burden 167
earliest 167
evol@@ 167
existieren 167
fel@@ 167
ference 167
full-@@ 167
graduated 167
high-tech 167
incre@@ 167
interviewed 167
investors 167
kurze 167
luxury 167
maxim@@ 167
neys 167
peaceful 167
realistic 167
signature 167
strike 167
tations 167
visions 167
wä@@ 167
Are 166
Berkeley 166
Coke 166
El 166
Experten 166
Gre@@ 166
Grenze 166
Logo 166
Nutzen 166
Prostate 166
Safer 166
Sonnen@@ 166
Tro@@ 166
collapsed 166
cuts 166
dic 166
fundament@@ 166
gehören 166
ght@@ 166
goo@@ 166
hergestellt 166
häufig 166
lamp 166
loving 166
memes 166
oop 166
prisoners 166
rac@@ 166
schlimmer 166
stammt 166
thi@@ 166
tissues 166
unterscheiden 166
wheels 166
1980 165
Bei@@ 165
Einsatz 165
Folge 165
Hut 165
Händen 165
Kalifornien 165
Kern@@ 165
Newton 165
Out 165
Pockets 165
Rem@@ 165
Schl@@ 165
Web@@ 165
addiction 165
affecting 165
ambigu@@ 165
astro@@ 165
asts 165
badly 165
beating 165
biolumines@@ 165
bis@@ 165
boats 165
branches 165
cau@@ 165
combat 165
communic@@ 165
diagnosis 165
emails 165
ener 165
ester 165
esti@@ 165
estimates 165
fat@@ 165
fores@@ 165
forgot 165
generating 165
hinweg 165
leid 165
lungen 165
mean@@ 165
mim@@ 165
navigate 165
perceived 165
plates 165
propose 165
proven 165
rant 165
religions 165
replaced 165
seemingly 165
stone 165
ured 165
Alpha 164
Autom@@ 164
Being 164
Captain 164
D-@@ 164
Ecology 164
Folgendes 164
Insulin 164
Italian 164
Jerusalem 164
Las@@ 164
Laufe 164
Mau@@ 164
Mount 164
Nan@@ 164
Pursuit 164
West@@ 164
agon@@ 164
eyed 164
freely 164
greifen 164
h-@@ 164
hoffen 164
igkeit 164
initi@@ 164
ises 164
jellyfish 164
kel 164
landscapes 164
nannte 164
ologically 164
pes 164
philosopher 164
ports 164
precious 164
resul@@ 164
rings 164
seite 164
senti@@ 164
simul@@ 164
temporary 164
tiven 164
unbe@@ 164
wenigen 164
wirk@@ 164
ADS 163
Amp@@ 163
Begriff 163
Bio@@ 163
Bud@@ 163
Cha@@ 163
Destiny 163
Experimente 163
Guarantee 163
Haufen 163
He@@ 163
Horizon 163
Neck 163
Prior 163
SMS 163
Sensation 163
Sn@@ 163
Sol@@ 163
Steven 163
Strand 163
Syndrome 163
Virginia 163
bekamen 163
centi@@ 163
cians 163
derer 163
doc@@ 163
erti@@ 163
ethnic 163
first-@@ 163
ity-@@ 163
lagen 163
lic 163
loan 163
mand@@ 163
nötig 163
opa@@ 163
ping 163
reck@@ 163
schi@@ 163
selten 163
ter-@@ 163
thir@@ 163
toes 163
tural 163
wuchs 163
wunderbar 163
350 162
Best@@ 162
Bildschirm 162
Coach 162
Crop 162
Cu@@ 162
DP 162
During 162
Gang 162
Gedanke 162
Hinter@@ 162
Krise 162
Lan@@ 162
Mur@@ 162
Rand 162
Raum@@ 162
San@@ 162
Sauerstoff 162
Schwester 162
Scott 162
Shirt 162
Sicherheits@@ 162
Stack 162
Test@@ 162
Until 162
Wie 162
X-@@ 162
acted 162
activate 162
annual 162
approved 162
assignment 162
bares 162
bauten 162
blowing 162
bored 162
chimpanzee 162
collectively 162
commerci@@ 162
decrease 162
dered 162
differenti@@ 162
distances 162
dungen 162
dys@@ 162
empowered 162
endangered 162
fibers 162
flags 162
helicopter 162
hiding 162
lachen 162
liter@@ 162
marry 162
mem@@ 162
miserable 162
nutri@@ 162
nutzt 162
obese 162
ographic 162
outs 162
password 162
path@@ 162
posed 162
procedure 162
ratio 162
smallest 162
specialized 162
straightforward 162
tate 162
tel 162
tled 162
trace 162
wenden 162
workforce 162
Öffentlichkeit 162
är 162
98 161
Agents 161
Crew 161
Erkenntnis 161
Geld@@ 161
Irak 161
Ol@@ 161
Pf@@ 161
Puzzles 161
RM 161
Staat 161
Titel 161
Wind@@ 161
Z 161
angenommen 161
assistance 161
aufhören 161
bats 161
beantworten 161
brauche 161
challenged 161
cian 161
cool@@ 161
dependence 161
disability 161
dritten 161
esten 161
human-@@ 161
kin 161
knife 161
lar@@ 161
missions 161
multip@@ 161
offices 161
posted 161
previously 161
resolve 161
responses 161
rufen 161
spo@@ 161
steuern 161
suits 161
ticism 161
time-@@ 161
tritt 161
whist@@ 161
wissenschaftlichen 161
zul@@ 161
0ern 160
Barrel 160
Bewegungen 160
Char@@ 160
Comic 160
Ga@@ 160
Glacier 160
Helium 160
Label 160
Plastics 160
Wedding 160
Wunder 160
academ@@ 160
bezahlt 160
breakfast 160
brow@@ 160
chung 160
clo@@ 160
dru@@ 160
drücken 160
ernst 160
exec@@ 160
fassen 160
führ@@ 160
gän@@ 160
hängen 160
iny 160
kri@@ 160
mapping 160
müsste 160
obe@@ 160
offering 160
penet@@ 160
plac@@ 160
pump@@ 160
rede 160
ree 160
schien 160
seh@@ 160
sparen 160
transforming 160
weißt 160
yn 160
50-@@ 159
AS@@ 159
Except 159
High@@ 159
Jane 159
Kong 159
Lehr@@ 159
May@@ 159
McDonald 159
Meme 159
Ritual 159
Zell@@ 159
ala 159
audiences 159
biologist 159
blah 159
blown 159
breeding 159
builds 159
cky 159
claims 159
client 159
coin 159
column 159
compli@@ 159
cooperate 159
critici@@ 159
encryp@@ 159
entspricht 159
estate 159
generation 159
gespielt 159
hardest 159
heart@@ 159
hired 159
ica 159
ignored 159
intended 159
leb@@ 159
lement 159
market@@ 159
mathematicians 159
mature 159
mayor 159
mechan@@ 159
mobility 159
offers 159
packed 159
panic 159
plat@@ 159
pollin@@ 159
schl@@ 159
selfish 159
sink 159
succeeded 159
technolog@@ 159
tible 159
tun@@ 159
ubiquitous 159
wagen 159
welt 159
whis@@ 159
wobei 159
1984 158
App@@ 158
Bowl 158
Engl@@ 158
Fri@@ 158
Friday 158
Gegensatz 158
Individuen 158
July 158
Keys 158
Lern@@ 158
Men@@ 158
Passage 158
Phoenix 158
Prin@@ 158
Prof@@ 158
Sam 158
Schlüssel 158
Tim 158
Virgin 158
achten 158
ashing 158
aster 158
caves 158
coura@@ 158
defining 158
despair 158
desperately 158
dominated 158
ective 158
explored 158
free@@ 158
fälle 158
gem@@ 158
herr@@ 158
ingen 158
kins 158
nete 158
opping 158
predictable 158
raus@@ 158
revolution@@ 158
stepped 158
stit@@ 158
storage 158
tau@@ 158
trivial 158
troops 158
ude 158
wage 158
Apps 157
Canyon 157
Fil@@ 157
Its 157
Nationen 157
Profession 157
Retirement 157
Seattle 157
Sky@@ 157
Ste@@ 157
Telefon 157
akes 157
arro@@ 157
bedeut@@ 157
ena 157
fate 157
hau@@ 157
kos@@ 157
less@@ 157
musst 157
roten 157
rough@@ 157
scanning 157
schalten 157
schizophrenia 157
spiel@@ 157
spielte 157
ushing 157
wheat 157
wirtschaftliche 157
1-@@ 156
Abed 156
Anybody 156
Atlanta 156
BC 156
Downtown 156
Extre@@ 156
Minimum 156
Partnership 156
Regen@@ 156
Stri@@ 156
Suddenly 156
Sure 156
Tu@@ 156
Zuhause 156
absence 156
arguing 156
attacked 156
baut 156
bility 156
chers 156
clinics 156
clue 156
concentrated 156
continuous 156
contrary 156
correctly 156
describes 156
donor 156
dynam@@ 156
educ@@ 156
electron 156
eman 156
entstanden 156
f-@@ 156
gam@@ 156
inary 156
interior 156
krank 156
locally 156
locations 156
making 156
manipulate 156
more 156
off-@@ 156
onic 156
overnight 156
preser@@ 156
progres@@ 156
purch@@ 156
rechte 156
regard 156
researcher 156
residents 156
safely 156
slime 156
systeme 156
taining 156
tak@@ 156
territory 156
tot 156
transmission 156
uded 156
unhappy 156
voting 156
yourselves 156
130 155
40,000 155
Anyone 155
Brot 155
Commons 155
Eu@@ 155
Geh@@ 155
Gehirne 155
Meilen 155
Monster 155
Mumbai 155
Proposition 155
Security 155
Stimmen 155
Trauma 155
Up@@ 155
actively 155
armen 155
bedeuten 155
cocaine 155
comm@@ 155
cum@@ 155
del 155
der-@@ 155
encouraging 155
erkennt 155
fall@@ 155
flü@@ 155
frag@@ 155
funktion@@ 155
führung 155
igh@@ 155
lustig 155
ptions 155
schm@@ 155
stitu@@ 155
swor@@ 155
terrifying 155
tiere 155
unch 155
wahre 155
wirken 155
wol@@ 155
zone 155
10.000 154
34 154
AG 154
AR@@ 154
Assets 154
Bangladesh 154
Banking 154
Bills 154
Bruder 154
Dep@@ 154
Ihres 154
Im@@ 154
Körpers 154
Mentor 154
Pants 154
Phot@@ 154
Politiker 154
Republic 154
Rick 154
Stopping 154
Winds 154
acci@@ 154
ail@@ 154
aufbauen 154
concerns 154
connectivity 154
constraints 154
consul@@ 154
convenient 154
equations 154
erfinden 154
ett@@ 154
grades 154
hibi@@ 154
iPod 154
inal 154
inen 154
morgens 154
motivated 154
observed 154
quad@@ 154
reduzieren 154
schwarze 154
studieren 154
treiben 154
ules 154
viewer 154
0 153
20s 153
Atomic 153
Cellular 153
Jeff 153
Kindheit 153
Mond 153
Mütter 153
Rahmen 153
Rand@@ 153
Schmerz 153
Sw@@ 153
Zeitalter 153
altitude 153
and-a-half 153
beaten 153
bulbs 153
calculations 153
consumed 153
contributed 153
dig 153
doubled 153
dropping 153
dumb 153
electrodes 153
ero@@ 153
exposure 153
failures 153
formula 153
gefährlich 153
geometry 153
grave 153
grounds 153
honestly 153
immense 153
inevitably 153
infections 153
li 153
lowest 153
marketplace 153
newspapers 153
no-@@ 153
ologe 153
ologi@@ 153
pois@@ 153
prevention 153
proved 153
psychologist 153
put@@ 153
rated 153
reci@@ 153
reflection 153
reproduce 153
rope 153
scenes 153
side@@ 153
solch 153
spill 153
springen 153
starten 153
stored 153
stretch 153
surrounding 153
verk@@ 153
volunteer 153
wound 153
ür@@ 153
1960s 152
5-@@ 152
Affen 152
Ag@@ 152
Augenblick 152
Automobile 152
Bürger@@ 152
Division 152
Dose 152
Eindruck 152
Entdeckung 152
Ganze 152
Geburt 152
Gleiche 152
Hills 152
Historic 152
Methoden 152
Mozart 152
Parkinson 152
Sarah 152
Sixth 152
Sl@@ 152
Verstand 152
Zoo 152
br 152
cke 152
dar 152
drop@@ 152
einiger 152
ening 152
entworfen 152
extraordinarily 152
folgt 152
fängt 152
gefangen 152
geri@@ 152
headlines 152
indi@@ 152
industrie 152
limitations 152
pig@@ 152
reisen 152
stays 152
techni@@ 152
ät@@ 152
00@@ 151
Besch@@ 151
Bon@@ 151
Galaxien 151
Glauben 151
Green@@ 151
Industrial 151
Institutional 151
Kr@@ 151
Lands 151
Lonely 151
Mines 151
Neocortex 151
Ober@@ 151
Ph.D. 151
Qaeda 151
Trigger 151
Wright 151
alle@@ 151
bedroom 151
chern 151
ffer 151
gerät 151
gled 151
heits@@ 151
lanes 151
listened 151
pet@@ 151
rat 151
raum 151
spra@@ 151
thor@@ 151
thr@@ 151
verbal 151
verbreiten 151
wechseln 151
wow 151
Alice 150
Asian 150
Baum 150
But@@ 150
Cluster 150
Daniel 150
Der 150
Elemente 150
Enemies 150
FDA 150
Fis@@ 150
Formation 150
Gemeinden 150
Geschäfts@@ 150
Hawaii 150
Hinsicht 150
Indonesia 150
JF 150
Kli@@ 150
Schimpansen 150
Stra@@ 150
Teilchen 150
Uni@@ 150
adminis@@ 150
alistic 150
amazingly 150
anticip@@ 150
athletes 150
beautifully 150
beschlossen 150
bietet 150
bil@@ 150
carb@@ 150
ckle 150
communicating 150
confront 150
contamin@@ 150
controversial 150
convey 150
crimes 150
custom@@ 150
demonstrated 150
disabled 150
energi@@ 150
erscheinen 150
esen 150
follows 150
foundations 150
gelegt 150
gene@@ 150
guilty 150
halfway 150
höre 150
installed 150
kindness 150
leather 150
medizinische 150
mic@@ 150
nodes 150
organ@@ 150
phosphorus 150
physicians 150
preparing 150
prosperity 150
quali@@ 150
recht@@ 150
roll@@ 150
selected 150
standen 150
tale 150
terrified 150
therapies 150
toilets 150
trafen 150
verbrachte 150
weigh 150
workplace 150
worm 150
.org 149
24@@ 149
Ansicht 149
Cape 149
Diagnose 149
Elementary 149
Flash 149
Hunt 149
Jihad 149
Knochen 149
Mensch@@ 149
Migration 149
Moon 149
Netzwerke 149
Penis 149
Probably 149
SA 149
Schw@@ 149
Smartphone 149
Strings 149
Strip 149
Sustain 149
Tanzania 149
Vorteil 149
Zi@@ 149
advances 149
amazed 149
ambitious 149
believing 149
concentration 149
definieren 149
eful 149
environ@@ 149
fies 149
gestorben 149
geändert 149
heading 149
humanitarian 149
kni@@ 149
natürlichen 149
prä@@ 149
reactor 149
read@@ 149
rill@@ 149
sale 149
sections 149
six@@ 149
spüren 149
stern 149
supermarket 149
tert 149
Almost 148
Goodbye 148
Iran@@ 148
Islam@@ 148
Israeli 148
Jack@@ 148
Kindergarten 148
Lebewesen 148
Nu@@ 148
Online-@@ 148
Produktion 148
Psych@@ 148
Readers 148
Relief 148
Roman 148
Ski 148
Surgeons 148
Verb 148
ac 148
activist 148
appen 148
approached 148
arter@@ 148
beschäftigen 148
blieb 148
buil@@ 148
dran 148
fair@@ 148
gefallen 148
grou@@ 148
hop@@ 148
kur@@ 148
lifted 148
lte 148
mass@@ 148
oming 148
persönlich 148
pflanzen 148
sper@@ 148
storytelling 148
tab@@ 148
wins 148
ym@@ 148
.000 147
1900 147
Aspekt 147
Award 147
Bild@@ 147
Blu@@ 147
Ed 147
Everest 147
Fakten 147
Foie 147
Generationen 147
Imp@@ 147
Inch 147
Ms 147
Mutation 147
Organismen 147
PC 147
Plan@@ 147
Sm@@ 147
Swiss 147
Topics 147
Zealand 147
Zei@@ 147
aller@@ 147
aqu@@ 147
arbei@@ 147
arity 147
atter 147
behalf 147
bite 147
calories 147
cancers 147
character@@ 147
civilizations 147
commit 147
competing 147
cows 147
dens 147
educate 147
eight-@@ 147
fluorescent 147
folded 147
funds 147
gesture 147
grasp 147
great-@@ 147
ion@@ 147
isted 147
itäten 147
kurzem 147
kurzen 147
leaf 147
likelihood 147
narratives 147
nis 147
pas@@ 147
personalized 147
pills 147
politically 147
prints 147
psychologists 147
punishment 147
q@@ 147
receiving 147
renewable 147
rolled 147
sicht 147
striking 147
supplies 147
sä@@ 147
tal 147
taxes 147
telescopes 147
tiveness 147
tting 147
verschwinden 147
zig 147
üb@@ 147
Alarm 146
Albert 146
CA@@ 146
Covers 146
Funktion 146
Goo@@ 146
Häuser 146
Kräfte 146
Medikament 146
Mid@@ 146
Protest 146
Red@@ 146
Sit@@ 146
Someone 146
Straßen@@ 146
blindness 146
chts@@ 146
drow@@ 146
enjoying 146
et-@@ 146
gle 146
grab@@ 146
gran@@ 146
halbe 146
manner 146
nerves 146
officials 146
origins 146
oul@@ 146
relativ 146
simpler 146
stoff@@ 146
zus@@ 146
21. 145
Arbeiten 145
Bal@@ 145
Beste 145
Buch@@ 145
Deals 145
Deb@@ 145
Hallo 145
Joseph 145
Pet@@ 145
Predators 145
Revealed 145
Sake 145
Server 145
adjust 145
ature 145
aut 145
bacterial 145
ball 145
beobachtet 145
deepest 145
drüben 145
fähigkeit 145
gross 145
grundlegende 145
heim 145
iss@@ 145
limit@@ 145
magnificent 145
rowing 145
stärker 145
tating 145
unden 145
vollen 145
wisst 145
Berg@@ 144
Beweise 144
Bit@@ 144
Fort@@ 144
Kern 144
Millimeter 144
Publishing 144
Rab@@ 144
Reb@@ 144
Sor@@ 144
Träume 144
Vorfahren 144
We@@ 144
Weile 144
acknowledge 144
amen 144
binary 144
buses 144
charged 144
construct 144
credi@@ 144
curves 144
defend 144
democra@@ 144
dents 144
derzeit 144
diert 144
digit 144
double-@@ 144
drops 144
entry 144
eval 144
exam@@ 144
expressed 144
expressions 144
genu@@ 144
glucose 144
glue 144
healing 144
hierarchy 144
hometown 144
humili@@ 144
ied 144
illustrate 144
indigenous 144
meiste 144
mentary 144
opinions 144
orph@@ 144
ousness 144
overhead 144
pharmaceutical 144
picks 144
pill 144
play@@ 144
recipe 144
regardless 144
ron 144
sang 144
sanitation 144
schte 144
sinn@@ 144
sperm 144
staring 144
tables 144
teuer 144
tex@@ 144
thus 144
trou@@ 144
ve-@@ 144
vin@@ 144
worrying 144
Bildungs@@ 143
Emotionen 143
Fans 143
Ke@@ 143
Minority 143
Penguin 143
Rätsel 143
TEDTalks 143
Ul@@ 143
Zones 143
activists 143
algae 143
antly 143
beschloss 143
burst 143
case 143
ceremony 143
cryst@@ 143
devastating 143
eil 143
ex 143
fantastisch 143
frequently 143
fährt 143
gesund 143
herunter@@ 143
hes 143
historically 143
ierende 143
laden 143
llen 143
makers 143
mei@@ 143
nur@@ 143
swi@@ 143
technically 143
ues 143
variations 143
verbindet 143
wirtschaft 143
wirtschaftlichen 143
äl@@ 143
193@@ 142
59 142
AIM 142
Acid 142
Assembly 142
Brasilien 142
Entwicklungsländern 142
Erklärung 142
Feld 142
Format 142
Fälle 142
Gold@@ 142
Hans 142
Hotel 142
Icon 142
Landschaft 142
Larry 142
Linien 142
Mo 142
Nitrogen 142
Predator 142
RNA 142
Stadt@@ 142
Sylvia 142
Venture 142
Wieder@@ 142
Woods 142
alisieren 142
ampli@@ 142
berührt 142
cared 142
compos@@ 142
denti@@ 142
enorme 142
fau@@ 142
fern 142
gefähr@@ 142
gic 142
isch@@ 142
langer 142
masses 142
mobili@@ 142
nicht-@@ 142
pipe 142
proto@@ 142
ret@@ 142
sni@@ 142
spiele 142
spinning 142
traditionellen 142
us-@@ 142
weis@@ 142
zurückzu@@ 142
äh@@ 142
” 142
Aliens 141
Black@@ 141
Carpet 141
Dawn 141
Energi@@ 141
Grace 141
Lion 141
Prince 141
Stadium 141
Stu@@ 141
Verhältnis 141
Zitat 141
advoc@@ 141
anwenden 141
asleep 141
barriers 141
batteries 141
beispielsweise 141
belly 141
belongs 141
bom@@ 141
compet@@ 141
coordin@@ 141
corners 141
cultiv@@ 141
danken 141
digiti@@ 141
digt 141
din@@ 141
direc@@ 141
documented 141
dough 141
druck 141
electrons 141
erscheint 141
evolving 141
fi 141
fisheries 141
folds 141
fore@@ 141
gui@@ 141
gy@@ 141
hän@@ 141
independence 141
intensity 141
involve 141
item 141
kannte 141
lang@@ 141
large-scale 141
lec@@ 141
legislation 141
meals 141
messy 141
mosquito 141
nasty 141
occup@@ 141
occurring 141
planetary 141
randomly 141
request 141
reserves 141
responded 141
rows 141
school@@ 141
sizes 141
stes 141
sufficient 141
tern@@ 141
theit 141
tolerance 141
ty-@@ 141
unabhängig 141
upside 141
versi@@ 141
zerstört 141
Australien 140
Bett 140
Bridges 140
Clubs 140
Data 140
Drogen 140
Entwicklungs@@ 140
Horror 140
Joint 140
Mand@@ 140
Maximum 140
Mitarbeiter 140
Mod@@ 140
Momentum 140
Pad 140
Peer 140
S. 140
Schutz 140
Sierra 140
Stein 140
Strands 140
Strom@@ 140
Temple 140
Transit 140
Wahrnehmung 140
Will@@ 140
alismus 140
aul@@ 140
code 140
conductor 140
day@@ 140
depen@@ 140
desc@@ 140
distrac@@ 140
enjoyed 140
erstellt 140
hard@@ 140
heißen 140
ink@@ 140
komplexe 140
leiten 140
mas 140
neuroscienti@@ 140
obs 140
ont@@ 140
ound@@ 140
pose 140
ras@@ 140
recommen@@ 140
suspended 140
tory 140
tos 140
un-@@ 140
uner@@ 140
1994 139
1995 139
Architekten 139
Chimps 139
Drag 139
Freundin 139
Frustration 139
Internet@@ 139
Lock 139
Luther 139
Med@@ 139
Nachbarn 139
Quelle 139
Schwierigkeiten 139
Steam 139
Tim@@ 139
annehmen 139
asing 139
aufgebaut 139
aufzubauen 139
chron@@ 139
cin@@ 139
cious 139
dity 139
dness 139
erwähnt 139
fru@@ 139
fäl@@ 139
gn@@ 139
hoo@@ 139
ington 139
iry 139
iss 139
liefern 139
nel 139
quar@@ 139
rap 139
schlechter 139
shops 139
stabili@@ 139
trag@@ 139
zeigten 139
zerstören 139
Armen 138
Atom 138
Basketball 138
Boots 138
Buff@@ 138
Cholera 138
Christ@@ 138
Dat@@ 138
Deutschland 138
Foster 138
Fuß@@ 138
Hir@@ 138
Insel 138
Intention 138
Ireland 138
Jupiter 138
Mach@@ 138
Maus 138
Mund 138
Person@@ 138
Programme 138
Rea@@ 138
Scans 138
Thailand 138
Werbung 138
abandoned 138
aking 138
anticipate 138
asis 138
aters 138
attitudes 138
bahn 138
bamboo 138
beinahe 138
calculated 138
compar@@ 138
compromise 138
consum@@ 138
darunter 138
destroying 138
diameter 138
disagree 138
folgende 138
four 138
fter 138
gres@@ 138
hi 138
inci@@ 138
jedenfalls 138
labeled 138
measurements 138
melt 138
mud 138
ories 138
owed 138
ption 138
ralized 138
remarkably 138
rev@@ 138
rical 138
richten 138
right-hand 138
roles 138
rum@@ 138
self-interest 138
simplest 138
skeletal 138
solange 138
stoff 138
tax@@ 138
temperatures 138
ups 138
vac@@ 138
vaccines 138
verstand 138
vivi@@ 138
wesentlich 138
winner 138
wooden 138
wrap 138
yards 138
Alaska 137
Bound 137
Calm 137
Cap 137
Clusters 137
Corporation 137
Ego 137
Elektrizität 137
Gedicht 137
Integration 137
Joshua 137
Kennedy 137
Maßstab 137
Montana 137
Nein 137
Rethink 137
Switzerland 137
Twin 137
Watts 137
ament 137
ara 137
aut@@ 137
außen 137
awkward 137
besuchen 137
buch 137
counter 137
ctions 137
decision-making 137
eing 137
fers 137
flas@@ 137
gram 137
happily 137
heal 137
hinzu 137
lichem 137
magne@@ 137
müssten 137
notwendig 137
omen 137
privileged 137
schlechten 137
schol@@ 137
tier 137
trei@@ 137
will@@ 137
willst 137
zeiten 137
í@@ 137
überlegen 137
58 136
86 136
Bauern 136
Bereiche 136
Bereichen 136
Biosphere 136
Brazilian 136
CO 136
Dig@@ 136
Glas@@ 136
Hung@@ 136
Korruption 136
Kulturen 136
Mexiko 136
Redwood 136
Situationen 136
Stolen 136
Umfeld 136
Victori@@ 136
Zimmer 136
angesehen 136
blauen 136
contex@@ 136
dischen 136
drum 136
dunkle 136
ergibt 136
frontal 136
genomes 136
grundsätzlich 136
horizontal 136
inspiriert 136
isting 136
landen 136
meters 136
ming@@ 136
moment@@ 136
namely 136
nat@@ 136
regularly 136
smiling 136
tags 136
ume 136
ura 136
vermitteln 136
vorher@@ 136
1997 135
38 135
97 135
Afghan 135
Alphabet 135
Aristotle 135
Ash@@ 135
Ausmaß 135
Avi@@ 135
Backyard 135
Browser 135
Dinosaurier 135
Festival 135
Folgen 135
Gespräch 135
Han@@ 135
Hot@@ 135
Lee 135
O.@@ 135
Professors 135
Proph@@ 135
Rover 135
SEAL 135
Sahara 135
abundance 135
accuracy 135
adequate 135
aesthetic 135
ante 135
atoren 135
ce-@@ 135
compounds 135
contribution 135
copies 135
coverage 135
craft 135
crossed 135
depos@@ 135
dom 135
embarrassing 135
entdeckte 135
erungen 135
excuse 135
fas@@ 135
fet@@ 135
foll@@ 135
gewissen 135
gie 135
hand-@@ 135
harmony 135
hielten 135
hon@@ 135
hopes 135
hormones 135
injuries 135
insane 135
instruc@@ 135
irony 135
kiss 135
light@@ 135
lists 135
lö@@ 135
machinery 135
matched 135
medicines 135
menschlicher 135
mimic 135
mutations 135
norms 135
nowadays 135
nt@@ 135
omet@@ 135
persönliche 135
pouring 135
priority 135
realization 135
recep@@ 135
recommend 135
scal@@ 135
sculp@@ 135
sends 135
seven-@@ 135
sheer 135
significance 135
sin 135
single-@@ 135
submer@@ 135
suff@@ 135
tain@@ 135
tains 135
tear 135
trinken 135
unterschiedlich 135
urban@@ 135
verfügbar 135
visualization 135
westlichen 135
wishes 135
world-@@ 135
yc@@ 135
43 134
AIMS 134
Asthma 134
Cage 134
Denial 134
Ei@@ 134
Erd@@ 134
Fleisch 134
Fol@@ 134
Gal@@ 134
Have 134
Matt 134
Ob@@ 134
Son@@ 134
Stewart 134
Temperatur 134
Top-@@ 134
Vögel 134
Wat@@ 134
Zweck 134
agi@@ 134
arme 134
brut@@ 134
chter@@ 134
cosm@@ 134
delicious 134
deployed 134
dun@@ 134
ella 134
es-@@ 134
favorites 134
fence 134
fired 134
flie@@ 134
geber 134
gebeten 134
gh 134
graben 134
gradu@@ 134
gründen 134
hafte 134
heter@@ 134
horri@@ 134
imagining 134
individu@@ 134
introduction 134
it-@@ 134
lifel@@ 134
manual 134
meist 134
min 134
nützlich 134
olog@@ 134
omy 134
onate 134
ouse 134
passes 134
schlafen 134
se-@@ 134
seid 134
stehe 134
stere@@ 134
sub-Saharan 134
tigkeit 134
transmit 134
trapped 134
uh 134
venti@@ 134
verbessert 134
wirkt 134
+ 133
2015 133
Chap@@ 133
Computational 133
DVD 133
Disney 133
Durch@@ 133
Enterprise 133
Eve 133
Farther 133
Gewebe 133
Kerl 133
Neues 133
PC@@ 133
PR 133
Pier@@ 133
Programmers 133
Separation 133
Singapore 133
Stufe 133
Tru@@ 133
US@@ 133
baute 133
bestand 133
deci@@ 133
dert 133
dr 133
dum@@ 133
ehen 133
ersetzen 133
gle@@ 133
meter 133
moderne 133
observations 133
quasi 133
raten 133
relatives 133
singen 133
soviel 133
tiker 133
tä@@ 133
untersucht 133
vermeiden 133
versteht 133
wasser 133
zar@@ 133
Cancer 132
Columbia 132
D. 132
Definition 132
Drogen@@ 132
Emergence 132
Govern@@ 132
Hal@@ 132
Indus 132
Interpret 132
Kap@@ 132
Marathon 132
Mikroben 132
Norm 132
Recall 132
Seawater 132
Suggestion 132
Syria 132
T. 132
Tausende 132
Tokyo 132
Turns 132
activated 132
attracted 132
authentic 132
avoi@@ 132
besondere 132
bol@@ 132
candidate 132
cattle 132
coming 132
conduct 132
consuming 132
continuously 132
correc@@ 132
deaf 132
digit@@ 132
discipl@@ 132
dispar@@ 132
durchschnittliche 132
elegan@@ 132
emplo@@ 132
enheit 132
fications 132
findings 132
fluctu@@ 132
frightening 132
gruppe 132
grün@@ 132
juice 132
linge 132
matic 132
mind@@ 132
nearest 132
nity 132
objec@@ 132
ograph@@ 132
persönlichen 132
phenomenal 132
poison 132
pour 132
realities 132
recycled 132
reflected 132
res 132
resist 132
responding 132
riding 132
s. 132
sectors 132
sey 132
sion@@ 132
tas@@ 132
teaches 132
tedly 132
texture 132
tha 132
theorie 132
touching 132
transformative 132
transplan@@ 132
tungs@@ 132
umps 132
understands 132
unfair 132
useless 132
verteilt 132
visualize 132
voted 132
welchem 132
wrapped 132
zugänglich 132
Accomplished 131
Adoption 131
Beweis 131
Diskussion 131
Existenz 131
Fin@@ 131
Haup@@ 131
Klein@@ 131
Landing 131
Lean 131
Markt@@ 131
Milli@@ 131
Risiken 131
Sou@@ 131
Spi@@ 131
Stimulation 131
Strategie 131
Ther@@ 131
Trips 131
Viren 131
agers 131
ani@@ 131
aufs 131
champ@@ 131
coastal 131
conserv@@ 131
cris@@ 131
dahinter 131
dene 131
elines 131
entstand 131
expanded 131
freezing 131
ga 131
glimpse 131
gsten 131
hated 131
hood 131
intact 131
key 131
kr@@ 131
log 131
maschine 131
mot@@ 131
ographi@@ 131
pencil 131
planned 131
portra@@ 131
provin@@ 131
recur@@ 131
scheinbar 131
sequ@@ 131
sex@@ 131
stieg 131
textbooks 131
tox@@ 131
uren 131
verstehe 131
vertraut 131
vorne 131
zentrum 131
zw@@ 131
äm@@ 131
übrig 131
30@@ 130
52 130
Abschluss 130
Ah 130
Brücke 130
Commodity 130
Duck 130
Flo@@ 130
Horses 130
Inhalt 130
Investments 130
Kansas 130
Medien@@ 130
Olympic 130
Patents 130
Planted 130
Portugal 130
Rehabilitation 130
Ridge 130
Rücken 130
Tide 130
Venus 130
Wes@@ 130
abel 130
aching 130
artige 130
assi@@ 130
breakthrough 130
brilli@@ 130
concer@@ 130
crap 130
ct@@ 130
drag@@ 130
fü@@ 130
girlfriend 130
gos 130
hinten 130
lieb@@ 130
mankind 130
naive 130
overwhelming 130
ower 130
pie 130
psycho@@ 130
quarters 130
racy 130
retro@@ 130
rier 130
sea@@ 130
shore 130
shy 130
solcher 130
spot@@ 130
surfing 130
texts 130
tioning 130
trading 130
unterstützt 130
uss@@ 130
0er 129
15-@@ 129
150,000 129
8,000 129
Avatar 129
Boards 129
Bus@@ 129
Erinnerungen 129
Jews 129
Lewis 129
Nigerian 129
Nutz@@ 129
Plankton 129
Pretty 129
Pulse 129
Seven 129
TEDTalk 129
Telefon@@ 129
Tit@@ 129
Tonnen 129
Volk 129
Wesentlichen 129
abge@@ 129
acre 129
activ@@ 129
alisiert 129
analyzed 129
anony@@ 129
answering 129
attach 129
authors 129
bother 129
broader 129
cardi@@ 129
climbed 129
concent@@ 129
contained 129
cooling 129
cruel 129
cub@@ 129
describing 129
determines 129
develop@@ 129
dian 129
dient 129
disasters 129
distinction 129
ees 129
eindeutig 129
erstaunliche 129
exceptions 129
filling 129
float 129
gains 129
gically 129
heavily 129
imit@@ 129
indicate 129
integrate 129
invol@@ 129
keln 129
kompliziert 129
laughed 129
lediglich 129
literacy 129
livestock 129
lokalen 129
lower@@ 129
mach@@ 129
maneu@@ 129
merken 129
nde 129
oded 129
open-@@ 129
over-@@ 129
pill@@ 129
ples 129
prototypes 129
ral 129
realen 129
represent@@ 129
resses 129
rewards 129
rü@@ 129
sam 129
schei@@ 129
sequences 129
spacecraft 129
star 129
stomach 129
streams 129
switched 129
teilt 129
tierte 129
tori@@ 129
vieles 129
wr@@ 129
zeichen 129
-and-@@ 128
0s 128
25,000 128
Asteroids 128
Coca-Cola 128
Greece 128
Highlight 128
Lim@@ 128
Lobby 128
Milo 128
Prey 128
Schu@@ 128
Sensing 128
Smells 128
Stre@@ 128
U.K 128
acquired 128
anische 128
ata 128
bekannten 128
chamber 128
cm 128
comparing 128
condi@@ 128
dank 128
deception 128
dieselben 128
discussions 128
dit 128
effektiv 128
immort@@ 128
incident 128
kidding 128
membrane 128
mers 128
open@@ 128
owners 128
quanti@@ 128
racing 128
reaches 128
reflec@@ 128
rote 128
spät 128
teste 128
theoretical 128
trage 128
tuned 128
version 128
vis 128
visi@@ 128
whol@@ 128
wives 128
wofür 128
ysi@@ 128
Accountability 127
Alex 127
Ani@@ 127
Anwendung 127
Arab@@ 127
Bot@@ 127
Charakter 127
Cr@@ 127
Danny 127
Einheit 127
Gad@@ 127
Galaxie 127
Gegend 127
Gig@@ 127
Kit@@ 127
Kosovo 127
MA@@ 127
Manipulation 127
Masters 127
Micro@@ 127
Nieder@@ 127
Reporting 127
Rob 127
Tun@@ 127
Unternehmer 127
V-@@ 127
adoles@@ 127
ai@@ 127
ared 127
auff@@ 127
awa@@ 127
beinhaltet 127
bereich 127
beweisen 127
biom@@ 127
brach 127
bran@@ 127
caregi@@ 127
comb@@ 127
comprehen@@ 127
couples 127
darstellen 127
digitalen 127
ebene 127
exploit 127
feststellen 127
fting 127
gefällt 127
glori@@ 127
hinzu@@ 127
hörten 127
illu@@ 127
insbesondere 127
light-@@ 127
minis@@ 127
ola 127
old-@@ 127
outs@@ 127
paradox 127
plum@@ 127
programm@@ 127
proposal 127
publicly 127
red-@@ 127
schrecklich 127
sty@@ 127
tere 127
thrilled 127
zäh@@ 127
According 126
BP 126
Baby@@ 126
Berg 126
Cart 126
Connectome 126
Cs 126
Dan@@ 126
Fest@@ 126
Gate 126
Gesundheitswesen 126
Grant 126
Großmutter 126
Immig@@ 126
Kno@@ 126
Kombination 126
Konflikt 126
Nahrungs@@ 126
Oklahoma 126
Philadelphia 126
Propaganda 126
Scot@@ 126
Stellen 126
Todes@@ 126
Wüste 126
accelerating 126
acknowled@@ 126
anges@@ 126
arch@@ 126
argued 126
assure 126
atmen 126
aufnehmen 126
ax@@ 126
barer 126
bath@@ 126
biomass 126
boundary 126
carries 126
cheat 126
coll@@ 126
cream 126
credible 126
criteria 126
curr@@ 126
cylinder 126
damaged 126
deh@@ 126
democracies 126
edly 126
einz@@ 126
emit@@ 126
emph@@ 126
endless 126
erhielt 126
erk@@ 126
exhibit 126
foc@@ 126
gemeinsame 126
gorgeous 126
graduates 126
halb 126
handful 126
heada@@ 126
heating 126
hostile 126
inex@@ 126
informal 126
internationale 126
internationalen 126
ired 126
isiert 126
kol@@ 126
lethal 126
lig 126
meinte 126
modeling 126
nos@@ 126
orial 126
oses 126
prefer@@ 126
proce@@ 126
pulls 126
rates 126
regional 126
respec@@ 126
revel@@ 126
rob@@ 126
screaming 126
sculptures 126
sequencing 126
sessions 126
shifts 126
shoe 126
shower 126
slower 126
spreads 126
stake 126
stun@@ 126
surgeries 126
th-century 126
tief@@ 126
treat@@ 126
umped 126
ungsp@@ 126
universes 126
vary 126
viewing 126
vorhanden 126
zählt 126
4.@@ 125
Anteil 125
Archive 125
Bedürfnisse 125
Cast@@ 125
Chase 125
Cousin 125
Craig 125
Dalai 125
Desperate 125
Ele@@ 125
Fernseh@@ 125
Gemein@@ 125
Genom 125
Gutes 125
Hmm 125
Impulse 125
Kampagne 125
Lam@@ 125
Lama 125
Netherlands 125
Rat@@ 125
Sport@@ 125
Zivilisation 125
abe 125
ail 125
ald 125
arran@@ 125
atom@@ 125
atta@@ 125
besagt 125
bold 125
discussing 125
eau 125
entfernen 125
enthält 125
evapor@@ 125
expl@@ 125
extr@@ 125
femin@@ 125
force 125
fur 125
gegründet 125
gible 125
intimate 125
ku@@ 125
lled 125
mark 125
momentan 125
mospher@@ 125
murder 125
oting 125
rewar@@ 125
rie 125
roman@@ 125
schauten 125
scher 125
schwimmen 125
setzten 125
shocking 125
shoulders 125
spell 125
stressed 125
thum@@ 125
veness 125
veränder@@ 125
vorzustellen 125
wunder@@ 125
yn@@ 125
0,@@ 124
Aer@@ 124
Ball@@ 124
Blo@@ 124
Christians 124
Diagnos@@ 124
Dirt 124
Frames 124
Geheimnis 124
Kam@@ 124
Lat@@ 124
Meditation 124
Ministry 124
Olympics 124
Ozeane 124
Pfund 124
Philosophical 124
Plat@@ 124
Pul@@ 124
Regulation 124
Select 124
Stärke 124
Timing 124
WK 124
Wohlstand 124
aufregend 124
belon@@ 124
bemerken 124
bezüglich 124
daten 124
defini@@ 124
diagnos@@ 124
fres@@ 124
gas@@ 124
gelebt 124
ghts 124
glob@@ 124
grad 124
holl@@ 124
hren 124
iconic 124
ide 124
ja@@ 124
junger 124
klar@@ 124
kli@@ 124
ktionen 124
mask 124
mathematician 124
oding 124
parti@@ 124
ri 124
ritten 124
selbstverständlich 124
sowas 124
spare 124
transmit@@ 124
vibra@@ 124
wirkliche 124
üh@@ 124
5.000 123
60,000 123
Buddha 123
Budgets 123
Chemikalien 123
Cyber@@ 123
Demo 123
Diagramm 123
Drei@@ 123
Flu@@ 123
J 123
JC 123
Pin@@ 123
Rechts@@ 123
Renaissance 123
Rome 123
Snowden 123
Statistiken 123
Top 123
Webseite 123
Wo@@ 123
Yor@@ 123
Zuschauer 123
accelerate 123
agen 123
ank 123
asse 123
at-@@ 123
blew 123
blood@@ 123
break@@ 123
breath@@ 123
canvas 123
century 123
circum@@ 123
concentrate 123
crude 123
dice 123
diff@@ 123
ekeepers 123
employment 123
empower 123
escal@@ 123
escap@@ 123
exagger@@ 123
fatal 123
freien 123
für@@ 123
gency 123
gewählt 123
grocery 123
gru@@ 123
halb@@ 123
hopeful 123
inhi@@ 123
injured 123
intent 123
interventions 123
kicked 123
lingu@@ 123
mach 123
microphone 123
mixing 123
nega@@ 123
nutrition 123
oce@@ 123
orous 123
osphere 123
oss 123
pathways 123
pity 123
practically 123
provi@@ 123
raises 123
recei@@ 123
recognizing 123
repeated 123
representative 123
risky 123
rog@@ 123
scaling 123
scrap@@ 123
selves 123
sett@@ 123
sexually 123
sooner 123
sticking 123
suit 123
systematically 123
tempor@@ 123
tiv 123
tooth@@ 123
unconscious 123
usage 123
veri@@ 123
visually 123
welfare 123
xes 123
ände 123
äußerst 123
übernehmen 123
1,500 122
12,000 122
CO@@ 122
Cyrus 122
Erfindung 122
Ess@@ 122
Handel 122
Indi@@ 122
Jon@@ 122
Keith 122
Millennium 122
Portraits 122
S-@@ 122
Sau@@ 122
Signale 122
Span 122
Spring 122
Ted 122
achieving 122
aria 122
band@@ 122
blaue 122
blicken 122
chess 122
chronic 122
claim@@ 122
counts 122
date 122
digung 122
economically 122
editor 122
efully 122
enorm 122
gebildet 122
ger-@@ 122
gering@@ 122
hierher 122
house 122
iden@@ 122
ides 122
ierenden 122
ild 122
improvis@@ 122
instruction 122
lichkeiten 122
lichste 122
march 122
mere 122
mind-@@ 122
nei@@ 122
overwhelmed 122
reques@@ 122
rotate 122
schwieriger 122
scri@@ 122
shelves 122
sna@@ 122
spiders 122
terin 122
terrific 122
trau@@ 122
trusted 122
veränderte 122
ves@@ 122
ware 122
weißen 122
zeichnet 122
überwinden 122
44 121
Aktivitäten 121
Arabia 121
Bangalore 121
Buchstaben 121
Chains 121
Dean 121
Dictionaries 121
Dimensionen 121
Gardens 121
Geography 121
Grundlage 121
Herren 121
High-@@ 121
Ja 121
Meets 121
Momente 121
Museums 121
PH 121
Roll@@ 121
Routine 121
Schatten 121
Segment 121
Sprach@@ 121
Süden 121
adul@@ 121
aks 121
akzeptieren 121
bat@@ 121
bees 121
beschrieben 121
bullet 121
calculus 121
chti@@ 121
collaborate 121
dare 121
dieren 121
dote 121
einiges 121
eks 121
enting 121
erhöhen 121
eur 121
fantasy 121
fehlt 121
frame 121
froh 121
fung 121
gefahren 121
gma@@ 121
gment 121
huh 121
ight@@ 121
insp@@ 121
manchen 121
menschliches 121
novel@@ 121
onie 121
optical 121
reser@@ 121
schreibt 121
schu@@ 121
variable 121
viel@@ 121
voraus@@ 121
worauf 121
19. 120
AK 120
Commission 120
Convention 120
Dishes 120
Egyptian 120
Informations@@ 120
Isolation 120
Jahrzehnt 120
Kurs 120
Louis 120
Lyn@@ 120
Mac 120
Mehrheit 120
Pipeline 120
Ran@@ 120
Sher@@ 120
Skep@@ 120
Symphony 120
Wahl@@ 120
absol@@ 120
acking 120
acquire 120
add@@ 120
adopt 120
aim@@ 120
alongside 120
anced 120
archi@@ 120
are@@ 120
artwork 120
associate 120
bble 120
bill@@ 120
bud@@ 120
candy 120
cardiac 120
child@@ 120
commit@@ 120
concl@@ 120
correspon@@ 120
creator 120
critically 120
deforestation 120
depic@@ 120
destination 120
destructive 120
disgust 120
donors 120
elaborate 120
eliminate 120
emotionally 120
exit 120
facili@@ 120
fasziniert 120
firing 120
fisher@@ 120
formal 120
funktionierte 120
glaubte 120
graphs 120
großartigen 120
heisst 120
ideology 120
idi@@ 120
ille 120
infant 120
intui@@ 120
istine 120
itor 120
kidney 120
kraft@@ 120
kreieren 120
ks@@ 120
lifespan 120
locomotion 120
logging 120
lottery 120
marked 120
mating 120
night@@ 120
offs 120
offspring 120
omed 120
oriented 120
periods 120
pet 120
pis@@ 120
preparation 120
produ@@ 120
promising 120
punch 120
rains 120
recession 120
satisfaction 120
seals 120
shaking 120
sprin@@ 120
standing 120
summit 120
teilweise 120
thered 120
thetics 120
tism 120
two-thirds 120
ua 120
unfortunate 120
utterly 120
vens 120
verwandelt 120
visiting 120
werte 120
whoever 120
witnessed 120
year@@ 120
youngest 120
ähnlichen 120
11. 119
7,000 119
Amsterdam 119
Brands 119
Canadian 119
Carnegie 119
Colom@@ 119
Drama 119
E-Mail 119
Einstellung 119
Elizabeth 119
Ethanol 119
Fire@@ 119
For 119
Freedom 119
Goliath 119
Greenland 119
Hol@@ 119
Innovationen 119
Jahrzehnten 119
Jefferson 119
Kaffee 119
Kopf@@ 119
Küste 119
Lar@@ 119
Papier@@ 119
Ram@@ 119
Slum 119
Squ@@ 119
Such 119
Südafrika 119
a.m. 119
ahl 119
altet 119
anstelle 119
approximately 119
automatisch 119
bang 119
bekomme 119
bush 119
ckets 119
counted 119
einig@@ 119
exam 119
ez 119
gegenseitig 119
grund 119
heal@@ 119
identi@@ 119
ighty 119
ignor@@ 119
infectious 119
interconnected 119
inventor 119
irgendjemand 119
irrational 119
kra@@ 119
long 119
lor@@ 119
nahme 119
occasion 119
ogen@@ 119
orphan@@ 119
ossen 119
philanthropy 119
pin 119
platz 119
pop@@ 119
port@@ 119
principal 119
print 119
pron@@ 119
representing 119
seht 119
sit@@ 119
stru@@ 119
tierten 119
tut@@ 119
ule 119
vement 119
vertrauen 119
werk@@ 119
wres@@ 119
30s 118
Acres 118
Anti@@ 118
Appeal 118
Choir 118
Couch 118
Dor@@ 118
Dur@@ 118
Folie 118
Gebiete 118
Geräusch 118
Gesichter 118
Glas 118
Guards 118
Hur@@ 118
IM@@ 118
Kenia 118
Kiribati 118
Krebs@@ 118
LHC 118
Lagos 118
League 118
Lektion 118
Nike 118
Pack@@ 118
Parasite 118
Rou@@ 118
Tat@@ 118
Triangle 118
Vitamin 118
Zwei@@ 118
anhand 118
ap 118
bildung 118
clu@@ 118
documentary 118
establish 118
favor@@ 118
fingen 118
formers 118
foun@@ 118
gur@@ 118
hh 118
ister 118
jud@@ 118
master@@ 118
medizinischen 118
metric 118
och@@ 118
schneiden 118
stimmen 118
teten 118
tigung 118
type@@ 118
vacation 118
weiterer 118
üs@@ 118
1930s 117
Achse 117
Affairs 117
Around 117
Codes 117
Edinburgh 117
Encyclopedia 117
Kreis 117
Lebanon 117
Mengen 117
Nase 117
Palestinian 117
Plastik@@ 117
Pot 117
Progression 117
Rep@@ 117
SA@@ 117
Schritte 117
Seele 117
Sü@@ 117
To 117
Towers 117
Vorteile 117
absurd 117
acids 117
ager 117
alty 117
big@@ 117
bread@@ 117
bureaucra@@ 117
cables 117
camel 117
candidates 117
cir@@ 117
cket 117
cleaning 117
clin@@ 117
composition 117
convicted 117
coordination 117
dauerte 117
decent 117
deserves 117
eBay 117
enc@@ 117
encountered 117
enforcement 117
erweitern 117
este 117
fea@@ 117
fool@@ 117
functioning 117
füllen 117
gebrochen 117
gover@@ 117
grünen 117
home@@ 117
implement 117
implemented 117
ingredient 117
jener 117
kel@@ 117
lebe 117
lo 117
loans 117
lokale 117
low-cost 117
luckily 117
mapped 117
marri@@ 117
melting 117
mosquitos 117
multiply 117
nd 117
obs@@ 117
origin@@ 117
otted 117
pedi@@ 117
platforms 117
prescription 117
prisoner 117
profession@@ 117
prosthetic 117
rations 117
rejected 117
relates 117
rescued 117
reti@@ 117
scaff@@ 117
schlug 117
serves 117
shorter 117
slice 117
stock@@ 117
strates 117
strations 117
swa@@ 117
sü@@ 117
talented 117
tight 117
timately 117
traffi@@ 117
trage@@ 117
unglaublichen 117
vali@@ 117
vegetable 117
vie@@ 117
vorbei@@ 117
wasted 117
weiße 117
woh@@ 117
4,@@ 116
64 116
Absolutely 116
Arena 116
Brad 116
Carl 116
Chromosome 116
DNA-@@ 116
Dach 116
Desktop 116
E-@@ 116
Eing@@ 116
Emp@@ 116
End@@ 116
Fel@@ 116
Fortschritte 116
Fungi 116
Helden 116
Interaktion 116
Interviewer 116
Kirche 116
Marker 116
Metapher 116
Motor 116
Motto 116
Pur@@ 116
Rechte 116
Rit@@ 116
Solar@@ 116
Stuhl 116
Tesla 116
Vide@@ 116
Wirkung 116
Wur@@ 116
Zimbabwe 116
abl@@ 116
adds 116
assumed 116
astronomy 116
belieb@@ 116
berichten 116
besitzt 116
besseres 116
biologische 116
book 116
digitale 116
distur@@ 116
elds 116
ele 116
feeds 116
fier@@ 116
gasoline 116
ila 116
investigate 116
jumping 116
longevity 116
malen 116
markt 116
mesh 116
moralische 116
oon 116
perio@@ 116
pleased 116
psychiat@@ 116
reasoning 116
reich@@ 116
round@@ 116
schau@@ 116
seltsam 116
sign@@ 116
smo@@ 116
sob@@ 116
spre@@ 116
ug 116
ula 116
vag@@ 116
vul@@ 116
weighs 116
wet 116
1000 115
AA 115
Apollo 115
Authenticity 115
Belt 115
Celebration 115
Cousins 115
Emily 115
Equals 115
Eth@@ 115
Food 115
Instinct 115
Invasion 115
Johnny 115
K-@@ 115
Kir@@ 115
Mig@@ 115
Port@@ 115
Princeton 115
Processor 115
Rad@@ 115
Regierungs@@ 115
SQUID 115
Shoots 115
Simon 115
Surveys 115
ables 115
alisierung 115
ances@@ 115
ansieht 115
bec@@ 115
bum@@ 115
diger 115
distingu@@ 115
drunk 115
eats 115
exotic 115
falschen 115
gal@@ 115
gement 115
gent 115
ght 115
glow 115
histori@@ 115
hus@@ 115
kal@@ 115
leichter 115
liebte 115
ling@@ 115
lun@@ 115
miss@@ 115
nachts 115
obli@@ 115
regi@@ 115
ront 115
sicher@@ 115
soweit 115
spiri@@ 115
stance 115
stei@@ 115
stran@@ 115
tail@@ 115
thal@@ 115
themes 115
tool@@ 115
transfer@@ 115
translator 115
uba 115
umgeben 115
unge@@ 115
view 115
zelle 115
zweimal 115
1991 114
1993 114
Aufnahme 114
Bloo@@ 114
Catholic 114
Cham@@ 114
Clips 114
Copenhagen 114
Diego 114
Doaa 114
Durchschnitt 114
Elektro@@ 114
Euro@@ 114
Forum 114
Gegenwart 114
Gerechtigkeit 114
Guard 114
Heroin 114
Interfaces 114
Iranian 114
Keep 114
Ken 114
Klima@@ 114
Kriegs@@ 114
Marks 114
Marrow 114
Mexican 114
Michigan 114
Männchen 114
Networking 114
Rom@@ 114
Saturday 114
Screening 114
Spiegel 114
Spray 114
Sudan 114
Verlust 114
Vorstellungen 114
Warum 114
Whenever 114
anfing 114
attered 114
autistic 114
behaupten 114
borrow 114
cheating 114
cloth 114
collision 114
complic@@ 114
compound 114
compute 114
congestion 114
consider@@ 114
cooperative 114
crows 114
crum@@ 114
dargestellt 114
dd@@ 114
default 114
den-@@ 114
dental 114
diarrhea 114
digging 114
disciplines 114
elec@@ 114
ened 114
erie 114
eries 114
flavor 114
gaining 114
gebraucht 114
generates 114
generic 114
gestures 114
gig@@ 114
grains 114
gst 114
habitats 114
haften 114
hall@@ 114
hard-@@ 114
hier@@ 114
hop 114
hoped 114
implant 114
integr@@ 114
intensi@@ 114
interessanter 114
intersection 114
intervie@@ 114
lean@@ 114
lieren 114
managing 114
margin@@ 114
nah@@ 114
negotiate 114
nissen 114
non-zero-sum 114
onstage 114
organisieren 114
polari@@ 114
priorities 114
producers 114
reforms 114
renewables 114
returns 114
revenues 114
revol@@ 114
richest 114
roofs 114
rum 114
set@@ 114
shining 114
sib@@ 114
sig 114
simulate 114
sor 114
spiritu@@ 114
suchte 114
systematic 114
targeted 114
tica 114
traction 114
woran 114
wore 114
zusätzlich 114
140 113
Advan@@ 113
Airline 113
Apartments 113
Arbeit@@ 113
B.@@ 113
Beam 113
Billionen 113
Chop 113
Copper 113
Cups 113
Damen 113
Diamonds 113
Differ@@ 113
Edward 113
Eternal 113
Gemeinschaften 113
Gen 113
Gur@@ 113
Jeopardy 113
Korean 113
Lectures 113
Leone 113
Liberia 113
Löcher 113
National@@ 113
Pau@@ 113
Prinzipien 113
Roh@@ 113
Stigma 113
Suppose 113
Supreme 113
Ten@@ 113
Therefore 113
Together 113
Try 113
Wettbewerb 113
Yemen 113
Zauber@@ 113
adju@@ 113
alien 113
ancing 113
atro@@ 113
beibringen 113
checked 113
collap@@ 113
consensus 113
considering 113
converted 113
cover 113
dad 113
edit 113
effective 113
endet 113
etzen 113
faszinierend 113
for-@@ 113
gins 113
glücklicherweise 113
households 113
install@@ 113
iron@@ 113
irt 113
isieren 113
jun@@ 113
kit@@ 113
lasting 113
loose 113
ly-@@ 113
mittel@@ 113
mus 113
ni 113
nieder@@ 113
olate 113
pays 113
practicing 113
preventing 113
profitable 113
sky 113
sometime 113
starben 113
strat@@ 113
stres@@ 113
struc@@ 113
tan 113
tion-@@ 113
tran@@ 113
transi@@ 113
trä@@ 113
unde 113
weshalb 113
winners 113
00 112
17th 112
2-@@ 112
900 112
Afrikas 112
Alan 112
Angiogenesis 112
Bau 112
Brand@@ 112
D.C. 112
Eri@@ 112
Hawking 112
Heb@@ 112
Intel 112
Klang 112
Magazines 112
Pakist@@ 112
Philip 112
PowerPoint 112
Proz@@ 112
Reader 112
Reporter 112
Respekt 112
Sketch 112
Squares 112
Stammzellen 112
Statistical 112
Stücke 112
Tangible 112
Terrorismus 112
Typ@@ 112
Ultraviolet 112
Vegas 112
Welten 112
YR 112
abs 112
ames 112
ami 112
angeh@@ 112
anium 112
aufgewachsen 112
blind@@ 112
brau@@ 112
cam@@ 112
chasing 112
conduc@@ 112
day-@@ 112
delivering 112
din 112
dlich 112
durchführen 112
elly 112
emis@@ 112
essive 112
euer 112
forschung 112
frie@@ 112
genügend 112
greg@@ 112
größ@@ 112
hypothes@@ 112
ka@@ 112
kan 112
losigkeit 112
marks 112
mischen 112
occupy 112
peculiar 112
rej@@ 112
resur@@ 112
stoßen 112
tles 112
unteren 112
verglichen 112
wind 112
überraschend 112
-F@@ 111
100-@@ 111
Archi@@ 111
Atheist 111
Bonus 111
Box 111
Consider 111
Down@@ 111
Fall@@ 111
Garten 111
Grafik 111
Iceland 111
Kanada 111
Klima 111
Level 111
Memorial 111
NSA 111
Nairobi 111
Natasha 111
Resultat 111
Russland 111
Sputnik 111
Ster@@ 111
Teszler 111
Trau@@ 111
Tuesday 111
Untersuchung 111
Warren 111
accoun@@ 111
acht@@ 111
afrikanischen 111
alike 111
allies 111
ange 111
angs 111
anniversary 111
aspi@@ 111
bab@@ 111
bacterium 111
bemerkte 111
bon 111
checks 111
chemotherapy 111
condoms 111
confronted 111
connec@@ 111
contributing 111
copied 111
cosmos 111
couns@@ 111
cube 111
cut 111
deadly 111
decides 111
deciding 111
denk@@ 111
detector 111
dler 111
eh 111
enormously 111
enthalten 111
entities 111
ester@@ 111
exist@@ 111
fear@@ 111
feminist 111
four@@ 111
fulness 111
func@@ 111
fällen 111
gegen@@ 111
geholfen 111
gest 111
han@@ 111
headquarters 111
held 111
inherently 111
investigation 111
jungle 111
ke-@@ 111
kti@@ 111
laugh@@ 111
left-hand 111
liest 111
maintenance 111
man-@@ 111
mehr@@ 111
millennia 111
million-@@ 111
orb@@ 111
page 111
parenting 111
philosophers 111
pipes 111
planting 111
predicting 111
promises 111
refriger@@ 111
refuse 111
rig 111
rowed 111
rus 111
salmon 111
schrei@@ 111
schwarzen 111
seln 111
sibility 111
skilled 111
sogenannte 111
spro@@ 111
submit 111
tagged 111
tails 111
thinkers 111
titles 111
tment 111
understand@@ 111
unt 111
utili@@ 111
washed 111
57 110
7,@@ 110
Absicht 110
Annahme 110
Apples 110
Aussage 110
Babbage 110
Back@@ 110
Bir@@ 110
Container 110
Dame 110
Filters 110
Galapagos 110
Guitar 110
Holz@@ 110
Märkte 110
Namibia 110
Nutzung 110
Para@@ 110
Pat 110
Pr@@ 110
Präsentation 110
SB 110
Schn@@ 110
Sequ@@ 110
Spaghetti 110
Spar@@ 110
Speeds 110
Sta@@ 110
Tut@@ 110
Unseen 110
Vegetation 110
Zufall 110
abor@@ 110
age-@@ 110
agnos@@ 110
anec@@ 110
besorgt 110
boards 110
bos@@ 110
cares 110
checking 110
chment 110
dauern 110
exhau@@ 110
expor@@ 110
fabric@@ 110
fantas@@ 110
fault 110
gemeinsamen 110
geographi@@ 110
geschlagen 110
geworfen 110
grass@@ 110
gste 110
haus 110
humility 110
incorpor@@ 110
ingo 110
innovate 110
lern 110
lings 110
massively 110
mittlerweile 110
nden 110
ordered 110
parachute 110
presum@@ 110
promoting 110
puzz@@ 110
refused 110
regulations 110
rub@@ 110
sear@@ 110
tated 110
transported 110
travels 110
tum 110
warmer 110
wirft 110
zieh@@ 110
1.5 109
Ambition 109
Aug@@ 109
Bein 109
Broadcast 109
Census 109
Charter 109
Daddy 109
Darstellung 109
Diplomat 109
Dome 109
Empowerment 109
Entrance 109
Fern@@ 109
Frontier 109
Fu@@ 109
Gam@@ 109
Hybrid 109
Ja@@ 109
KA 109
Kameras 109
Magie 109
Magnet 109
Massachusetts 109
Michelangelo 109
Mul@@ 109
Pennsylvania 109
Ple@@ 109
Pond 109
Quad@@ 109
Snake 109
Surround 109
Talents 109
Tanks 109
Tel@@ 109
Tem@@ 109
Unterhaltung 109
Zeitung 109
anal@@ 109
antwortete 109
author@@ 109
bits 109
blau 109
cast@@ 109
codi@@ 109
ehouse 109
fein@@ 109
freie 109
grüne 109
hugely 109
invasive 109
involving 109
itäts@@ 109
jung 109
kid@@ 109
klasse 109
komplexen 109
kontrolliert 109
mammal 109
mö@@ 109
nell 109
ocation 109
ode 109
offenen 109
oral 109
osc@@ 109
perfekte 109
peripher@@ 109
ph 109
ple 109
plet@@ 109
poin@@ 109
pro-@@ 109
school 109
schul@@ 109
smar@@ 109
speziellen 109
starken 109
suche 109
sured 109
unks 109
unterrichten 109
ursprünglich 109
verdi@@ 109
wide 109
worum 109
wäl@@ 109
yan 109
1.000 108
1945 108
AO 108
Analy@@ 108
Beh@@ 108
Broccoli 108
C-@@ 108
Chem@@ 108
Egyptians 108
Epidemie 108
Erlebnis 108
Eventually 108
Fortunately 108
Golden 108
Katrina 108
Korallen 108
Mak@@ 108
Meanwhile 108
MoMA 108
Mut 108
NE@@ 108
Peru 108
Pilots 108
Similarly 108
Stand 108
Stern 108
Tibet 108
Vit@@ 108
Vorstellungskraft 108
abroad 108
accomplish 108
addic@@ 108
addressing 108
ali 108
ally-@@ 108
anes@@ 108
appar@@ 108
aston@@ 108
attempts 108
basement 108
beds 108
beneficial 108
beside 108
boar@@ 108
brutal 108
clever@@ 108
coher@@ 108
columns 108
compatible 108
consists 108
cracks 108
ctu@@ 108
cture 108
darstellt 108
dentally 108
detec@@ 108
differ@@ 108
diplomacy 108
eal@@ 108
embarrassed 108
empowering 108
encies 108
enjoy@@ 108
erf@@ 108
erkannt 108
esp@@ 108
exce@@ 108
exual 108
filmed 108
frogs 108
gabe 108
genießen 108
grabbed 108
grap@@ 108
hallucinations 108
hed 108
hervor 108
humankind 108
ilt 108
improvements 108
incl@@ 108
influ@@ 108
insgesamt 108
install 108
joy@@ 108
knees 108
konzentriert 108
left-@@ 108
leu@@ 108
limbs 108
lips 108
losses 108
manus@@ 108
matches 108
meas@@ 108
metabolism 108
metals 108
noisy 108
ocra@@ 108
oids 108
oping 108
pair@@ 108
percent 108
physiology 108
pigeon 108
piles 108
prof@@ 108
projection 108
prü@@ 108
rants 108
render 108
respected 108
scheme 108
shifted 108
shr@@ 108
sig@@ 108
spatial 108
spite 108
stimulate 108
stoppen 108
strikes 108
substantial 108
symmetrical 108
symmetries 108
tauchen 108
therapist 108
though@@ 108
thylac@@ 108
tigt 108
trock@@ 108
viewed 108
vocabulary 108
voy@@ 108
welt@@ 108
wenigstens 108
wre@@ 108
wünschte 108
zieren 108
zung 108
Ä@@ 108
180 107
1970 107
24-@@ 107
450 107
87 107
AT@@ 107
Ausstellung 107
Beef 107
Bevölkerungs@@ 107
Bil@@ 107
Bonds 107
Bugs 107
Debatte 107
Education 107
Entfernung 107
Ereignis 107
Ereignisse 107
Francis 107
Guardian 107
Happy 107
Hurricane 107
Jahr@@ 107
Jokes 107
Junk 107
Jur@@ 107
Ma 107
Molekül 107
Müll 107
Nonsense 107
Regionen 107
Räume 107
Stare 107
Tab@@ 107
Tunis@@ 107
Wider@@ 107
analog 107
asset 107
beteiligt 107
betrieben 107
bild@@ 107
catastrophic 107
cost-@@ 107
decken 107
deficit 107
disturbing 107
einst 107
embracing 107
endi@@ 107
entscheidend 107
enzen 107
essi@@ 107
folgenden 107
genetische 107
geteilt 107
intentions 107
liberty 107
lungs@@ 107
morph@@ 107
nannten 107
precision 107
pressing 107
publi@@ 107
revolutions 107
room 107
rut@@ 107
sel 107
shel@@ 107
som@@ 107
sprache 107
stag 107
stap@@ 107
stoffe 107
suc@@ 107
survivors 107
trag 107
weekend 107
wom@@ 107
wovon 107
zy@@ 107
Ära 107
öh@@ 107
54 106
60@@ 106
= 106
Bol@@ 106
CEOs 106
Cardboard 106
Chemie 106
Committee 106
Dancers 106
EDI 106
Erwachsenen 106
Franklin 106
Geräusche 106
Ham@@ 106
Hipp@@ 106
Jahrzehnte 106
Jill 106
Laboratories 106
Lebensmittel 106
Lev@@ 106
Light 106
Lou@@ 106
MT@@ 106
PS 106
Paths 106
Pot@@ 106
Programmed 106
RI@@ 106
Republicans 106
RiSEs 106
Ron 106
SM 106
Storms 106
Tex@@ 106
Towns 106
Viertel 106
Voll@@ 106
Wol@@ 106
apper 106
arbeiter 106
bezeichnen 106
chter 106
chtigen 106
desig@@ 106
deut@@ 106
drücke 106
edge 106
einfaches 106
eps 106
erneut 106
far-@@ 106
fik@@ 106
fordern 106
fügen 106
fürs 106
gekauft 106
gon@@ 106
honesty 106
ink 106
ker@@ 106
langsamer 106
leistungs@@ 106
loo@@ 106
material 106
micros@@ 106
moun@@ 106
nachzu@@ 106
nomin@@ 106
pathetic 106
pher@@ 106
pit 106
provo@@ 106
rich@@ 106
schutz@@ 106
semi-@@ 106
space 106
spezi@@ 106
state-@@ 106
uniform 106
versteckt 106
wem 106
zufrieden 106
ähr@@ 106
125 105
1975 105
1996 105
3D-@@ 105
Arduino 105
Austri@@ 105
Band 105
Chancen 105
Cla@@ 105
DNS 105
Dre@@ 105
Fantas@@ 105
Goals 105
Got@@ 105
Hamburger 105
Handys 105
Iraq@@ 105
Kontinent 105
Magazine 105
Minerals 105
Op@@ 105
Ori@@ 105
Os@@ 105
Prä@@ 105
Retina 105
Schicksal 105
Somalia 105
Spr@@ 105
Tattoo 105
absorb 105
ached 105
alties 105
amps 105
ann 105
artifacts 105
assembled 105
ausgesetzt 105
autonomy 105
balanced 105
baseline 105
basierend 105
beetles 105
betreiben 105
bewegung 105
bildet 105
blessed 105
bottom-up 105
bücher 105
calculation 105
caps 105
careers 105
cataly@@ 105
chickens 105
clarity 105
common@@ 105
complain 105
consent 105
corresponds 105
corrupt 105
decreas@@ 105
desires 105
dimin@@ 105
disappears 105
edy 105
elevator 105
emphasize 105
enlighten@@ 105
equity 105
ex-@@ 105
fishermen 105
fit@@ 105
floors 105
foreh@@ 105
frequencies 105
gendes 105
helpless 105
hör@@ 105
iceberg 105
indicates 105
inqu@@ 105
integrity 105
internation@@ 105
istische 105
ji 105
jumps 105
lighter 105
litt@@ 105
lus@@ 105
medications 105
mess@@ 105
metabolic 105
metaph@@ 105
microscopic 105
mixture 105
modest 105
multinational 105
mushrooms 105
mycelium 105
nachgedacht 105
nesses 105
neten 105
neurolog@@ 105
nicely 105
nings 105
nonetheless 105
nütz@@ 105
obsolete 105
orientation 105
participating 105
praying 105
pressures 105
pricing 105
procedures 105
processed 105
quick@@ 105
recon@@ 105
reconci@@ 105
reflective 105
regulate 105
remin@@ 105
remotely 105
restrial 105
revers@@ 105
ridic@@ 105
ris 105
satisfied 105
sensitivity 105
spac@@ 105
span@@ 105
surviving 105
threatening 105
trat 105
umes 105
umping 105
uniquely 105
upward 105
ushed 105
veil 105
verschwunden 105
virtue 105
voneinander 105
vorbereitet 105
wand 105
warrior 105
widespread 105
wissenschaften 105
zur@@ 105
zusammenarbeiten 105
zut@@ 105
ç@@ 105
1.2 104
100.000 104
76 104
Armee 104
Avenue 104
BJ 104
Bruce 104
CD 104
Computern 104
Crow@@ 104
DE@@ 104
Displays 104
Doc@@ 104
EE@@ 104
Faktor 104
Film@@ 104
Fossils 104
Idiot 104
Kapital 104
König 104
Lang@@ 104
Leopard 104
Nepal 104
Nick@@ 104
Ohren 104
Pittsburgh 104
Regen 104
Remix 104
Roger 104
Rolls 104
Seafood 104
Skype 104
Toronto 104
Ts 104
Ty@@ 104
Verbreitung 104
Veronica 104
Water 104
Wilson 104
abgesehen 104
abundant 104
altered 104
athle@@ 104
awe 104
bricht 104
dn 104
draws 104
dringen 104
drittens 104
ehrt 104
elen 104
experiment@@ 104
fahrer 104
falten 104
fern@@ 104
finger@@ 104
fliegt 104
flights 104
fläche 104
full-time 104
genuine 104
gin 104
goodness 104
greatly 104
grosse 104
hand 104
hydr@@ 104
hyper-@@ 104
hü@@ 104
iker 104
impor@@ 104
intimacy 104
irgend@@ 104
ironic 104
izes 104
judgments 104
keits@@ 104
linie 104
metaphor@@ 104
mittels 104
oma 104
orts 104
ossi@@ 104
pleas@@ 104
reagiert 104
rech@@ 104
rechnen 104
reise 104
replacing 104
same 104
sichtbar 104
streng@@ 104
stron@@ 104
struggled 104
stum@@ 104
stück 104
synap@@ 104
sätze 104
traces 104
trug 104
tually 104
vergangenen 104
vierte 104
wick@@ 104
wieviel 104
15,000 103
Aber 103
Acumen 103
Allen 103
Appreciation 103
Aufnahmen 103
Buddhist 103
Cy@@ 103
D.@@ 103
Embodied 103
Episode 103
Finishing 103
Fragments 103
Früh@@ 103
Gat@@ 103
Georgia 103
Giussani 103
Guer@@ 103
Hotels 103
Jerry 103
Krieges 103
Literatur 103
Ment@@ 103
Monday 103
Pix@@ 103
Port 103
Pose 103
Quellen 103
Shepherd 103
Sing@@ 103
Singer 103
Sulfide 103
Summarize 103
Sweat 103
Ushahidi 103
Van@@ 103
Way 103
Werk 103
Wir@@ 103
Wounded 103
bedenken 103
begegnen 103
depres@@ 103
derselben 103
earning 103
ello 103
eng 103
etary 103
evolution@@ 103
extremis@@ 103
fame 103
fis@@ 103
grund@@ 103
grün 103
hou@@ 103
ines@@ 103
inzwischen 103
irgendeine 103
irts 103
keit 103
komplex 103
kul@@ 103
realis@@ 103
resi@@ 103
schließt 103
slope 103
space-@@ 103
speziell 103
till@@ 103
tlich 103
trieb 103
una 103
verdient 103
vielmehr 103
virus 103
zeu@@ 103
94 102
Adaptation 102
Arizona 102
Banker 102
Cer@@ 102
Despite 102
Dol@@ 102
Industri@@ 102
Jahres@@ 102
Juli@@ 102
LS 102
Lachen 102
Lager 102
Later 102
Mio. 102
Musiker 102
Null 102
OECD 102
Post 102
Potenzial 102
Proteine 102
Samuel 102
Schlüssel@@ 102
Schweden 102
Seh@@ 102
Tomato 102
Wi-Fi 102
Will 102
_ 102
acceptance 102
access@@ 102
accom@@ 102
aluminum 102
ancestor 102
angeht 102
animate 102
anschaut 102
any 102
applies 102
argu@@ 102
authoritarian 102
bern 102
bewirken 102
biases 102
celebrity 102
chapters 102
chemische 102
chromosomes 102
circul@@ 102
clues 102
conception 102
conditioning 102
configuration 102
correlation 102
countless 102
cus@@ 102
defe@@ 102
delay 102
dening 102
detected 102
diges 102
discrimination 102
doppelt 102
dreamed 102
drought 102
earned 102
elektrische 102
enabling 102
eover 102
equipped 102
erhöht 102
erter 102
evalu@@ 102
evaluate 102
ew 102
examine 102
exponentially 102
eyeb@@ 102
famine 102
fever 102
ffen 102
fix@@ 102
flesh 102
frau@@ 102
gebiet 102
glaubten 102
govern@@ 102
gravitational 102
heh 102
honored 102
iertes 102
il-@@ 102
illusions 102
impressed 102
irs 102
ision 102
journalism 102
keiten 102
lebenden 102
letztlich 102
marijuana 102
metic 102
mother@@ 102
motivate 102
node 102
occupied 102
olo@@ 102
owe 102
oyst@@ 102
passi@@ 102
pedestrian 102
penalty 102
positiv 102
primates 102
projected 102
qualified 102
quer 102
question@@ 102
racial 102
rang 102
real-time 102
reduziert 102
replacement 102
resolved 102
rigid 102
salary 102
scholar@@ 102
schwer@@ 102
scientifically 102
sells 102
serv@@ 102
settle 102
shortly 102
slept 102
squeeze 102
staggering 102
stealing 102
stret@@ 102
sued 102
symbolic 102
temp@@ 102
thereby 102
thre@@ 102
tightly 102
tionary 102
trade-@@ 102
trap 102
ularity 102
ulture 102
unterwegs 102
veröffentlichen 102
viable 102
weir@@ 102
weltweiten 102
wesen 102
whistle 102
wiped 102
wling 102
zeug 102
Überleben 102
2013 101
Aspekte 101
Club 101
Dallas 101
Dates 101
Diff@@ 101
Disk 101
Echtzeit 101
Fal@@ 101
Fläche 101
Four@@ 101
Fox 101
Frankreich 101
Gottes 101
Hammer 101
I. 101
It@@ 101
Jay 101
Kapitel 101
Kit 101
Kleidung 101
Midnight 101
Militär 101
Miss 101
Opposition 101
Swing 101
Twist 101
Versuche 101
Wolfram 101
Zeitraum 101
algorith@@ 101
anscheinend 101
aufgeregt 101
ault 101
auseinander 101
beachten 101
beenden 101
besessen 101
binden 101
bot 101
bury 101
cooler 101
dering 101
devast@@ 101
dienen 101
elf 101
famously 101
folgendes 101
fresh@@ 101
haltung 101
hes@@ 101
invent@@ 101
iste 101
jur@@ 101
lately 101
lever 101
longest 101
muster 101
mysti@@ 101
nap@@ 101
nine-@@ 101
nutz@@ 101
personalities 101
politician 101
relativity 101
screens 101
seventh 101
sexuality 101
thly 101
tren@@ 101
ungspro@@ 101
vas@@ 101
wach@@ 101
well-known 101
werten 101
wrist 101
yeast 101
zunehmend 101
Ökosystem 101
änder 101
18th 100
80@@ 100
Alb@@ 100
Ambulance 100
Arbeiter 100
Blatt 100
Costa 100
Econom@@ 100
Erwachsene 100
Flagge 100
Führung 100
Gemälde 100
Gesamt@@ 100
Geschenk 100
Gosh 100
Grammar 100
Hil@@ 100
IQ 100
Improvisation 100
Instrumente 100
Interessen 100
Jordan 100
Kibera 100
Konsequenzen 100
Kurve 100
Mob@@ 100
Nicole 100
Patch 100
SO@@ 100
Schuld 100
Secondary 100
Sei@@ 100
Skeptical 100
Sonnenlicht 100
Spiral 100
Tal@@ 100
Taxi 100
Thermal 100
UN 100
Verbrechen 100
Visitors 100
Wells 100
Yale 100
Yard 100
Zerstörung 100
angehen 100
atic 100
behand@@ 100
boy@@ 100
brain@@ 100
bung 100
definiert 100
delight 100
door@@ 100
eben@@ 100
ebo@@ 100
ernsthaft 100
event@@ 100
fahrt 100
fiz@@ 100
fran@@ 100
gefühl 100
geleitet 100
geschlossen 100
gewisser 100
gruppen 100
heilen 100
hosp@@ 100
ich@@ 100
ily 100
imple@@ 100
institution@@ 100
inti@@ 100
itors 100
klin@@ 100
lebende 100
lifer@@ 100
mehreren 100
menge 100
mächti@@ 100
nom@@ 100
ock 100
ometer 100
onia 100
ota 100
ped 100
reflects 100
rie@@ 100
schnitt 100
sionen 100
soccer 100
sour@@ 100
spark 100
surgical 100
texting 100
theore@@ 100
tick 100
tiefer 100
versorgen 100
yl 100
zentrale 100
zusehen 100
3-@@ 99
Anführer 99
Angels 99
Bat@@ 99
Brust@@ 99
Chat 99
Colle@@ 99
DI@@ 99
Domin@@ 99
Elefanten 99
FG 99
Feu@@ 99
Gener@@ 99
Hippocampus 99
Ingenieure 99
Jeans 99
Kohle 99
Kyoto 99
Looking 99
Mega@@ 99
Milky 99
Nat@@ 99
Neanderthals 99
Nik@@ 99
Posters 99
RL 99
Rabbi 99
Redesign 99
Sichtweise 99
Slogan 99
Specialist 99
Susan 99
Teilnehmer 99
Tickets 99
UN@@ 99
Using 99
Watt 99
Willen 99
acceptable 99
accumulate 99
achiev@@ 99
adolescence 99
analyzing 99
anatomy 99
ancy 99
andererseits 99
appoin@@ 99
aris@@ 99
atz 99
bedeutete 99
beetle 99
behold 99
bemerkenswert 99
buttons 99
cab@@ 99
cabin@@ 99
car 99
caus@@ 99
cens@@ 99
circular 99
cocktail 99
collaborators 99
consideration 99
counter-@@ 99
deep-@@ 99
dia 99
diagnostic 99
disabilities 99
discrimin@@ 99
disruptive 99
econds 99
eded 99
electri@@ 99
embar@@ 99
entrepreneurial 99
envelope 99
erforscht 99
erungs@@ 99
ethic 99
explanations 99
fantastische 99
faszin@@ 99
fec@@ 99
forcing 99
ford 99
frightened 99
gently 99
gged 99
gging 99
ghtly 99
gigantic 99
glich 99
govern 99
gs@@ 99
harte 99
headline 99
hieß 99
hinzufügen 99
inherent 99
instor@@ 99
insur@@ 99
intan@@ 99
intric@@ 99
isions 99
issen 99
istischen 99
joining 99
kalt 99
kostenlos 99
last@@ 99
laying 99
lebendig 99
letzter 99
manufacture 99
markers 99
minded 99
mirrors 99
mites 99
mmer 99
modell 99
mouths 99
niemanden 99
numerous 99
obstacle 99
occ@@ 99
ona 99
optimal 99
partnerships 99
playful 99
poll 99
poses 99
preci@@ 99
prob@@ 99
prosec@@ 99
protective 99
psychiatric 99
purchase 99
receptor 99
rehear@@ 99
remembering 99
reproduction 99
resilient 99
responsibilities 99
returning 99
reviewed 99
sal 99
short-term 99
siblings 99
slight 99
spontaneously 99
staircase 99
steady 99
stür@@ 99
subsequ@@ 99
tability 99
tenth 99
thirds 99
tizing 99
trig@@ 99
unity 99
usable 99
usw 99
verliert 99
veter@@ 99
voluntary 99
wiederholen 99
womit 99
yg@@ 99
z-@@ 99
zunehmen 99
Ägypten 99
Algorithmen 98
Arrest 98
BS 98
Bern@@ 98
Dam@@ 98
Decke 98
Denk@@ 98
Direc@@ 98
Erwartungen 98
Fliegen 98
Geburtstag 98
Gebäuden 98
Grassroots 98
Inseln 98
Interestingly 98
Lane 98
Male 98
Mes@@ 98
Müll@@ 98
Pan 98
Poll@@ 98
Prime 98
Ratings 98
Rein@@ 98
Repertoire 98
Tiefe 98
Venezuela 98
Vinci 98
advocate 98
anges 98
arise 98
artigen 98
athei@@ 98
bekannte 98
blei@@ 98
characteristic 98
chinesische 98
ckte 98
confined 98
deiner 98
derness 98
disappointed 98
dreaming 98
drückt 98
earing 98
efficiently 98
eingeladen 98
freund@@ 98
geous 98
getrennt 98
herauszu@@ 98
hinterlassen 98
höhere 98
iere 98
ima 98
innov@@ 98
investiert 98
invitation 98
jar 98
karte 98
legiti@@ 98
legte 98
lehren 98
lightning 98
lten 98
magician 98
menu 98
mächtig 98
nebenbei 98
odor 98
oons 98
oplan@@ 98
opo@@ 98
ordnung 98
planen 98
quantities 98
rage 98
resol@@ 98
rö@@ 98
sadness 98
schaft@@ 98
schlussendlich 98
schwierige 98
statisti@@ 98
still@@ 98
sustained 98
tisch@@ 98
trauma@@ 98
umm@@ 98
umzugehen 98
versorgung 98
verursachen 98
vorsichtig 98
waited 98
wohl@@ 98
zig@@ 98
zustellen 98
zü@@ 98
28@@ 97
Arm@@ 97
Arme 97
Asien 97
Beethoven 97
Blin@@ 97
Brust 97
Camp@@ 97
Chi@@ 97
Connecticut 97
Crashes 97
Der@@ 97
Entdeckungen 97
Faktoren 97
Fokus 97
Fon@@ 97
Goat 97
Graffiti 97
Greeks 97
Heights 97
Hob@@ 97
Holz 97
Humble 97
Hunde 97
Japan@@ 97
Klassenzimmer 97
Lon@@ 97
NGO 97
PA 97
PE@@ 97
Reaktionen 97
Ren@@ 97
Richtungen 97
Rum@@ 97
Schiff 97
Schlaf 97
Schrift 97
Sozi@@ 97
Statue 97
Supports 97
Turing 97
Update 97
Vietnam@@ 97
Voters 97
Warfare 97
Wars 97
Wellen 97
Zer@@ 97
Zweifel 97
aben 97
aj@@ 97
arrow 97
ateri@@ 97
atter@@ 97
begreifen 97
bench 97
bezeichnet 97
bilder 97
cob@@ 97
destin@@ 97
drehte 97
ellers 97
emen 97
enes 97
erectus 97
ffed 97
forgive 97
fünf@@ 97
geni@@ 97
gerettet 97
groß@@ 97
gun@@ 97
hem@@ 97
inventions 97
ktoren 97
lauf@@ 97
machst 97
mium 97
mü@@ 97
owns 97
pessimis@@ 97
radio@@ 97
sank 97
schluss 97
schrieben 97
schrift 97
sozi@@ 97
späten 97
stepping 97
stin@@ 97
story 97
system@@ 97
tish 97
ultra-@@ 97
variables 97
vorhin 97
zugeben 97
1989 96
82 96
83 96
Analyse 96
Band@@ 96
Beruf 96
Chinesen 96
Dylan 96
EC@@ 96
Edi@@ 96
Er 96
Ful@@ 96
Geschäfte 96
Gewinn 96
Guinea 96
HG 96
Herd 96
Holiday 96
Lauf 96
Lawrence 96
Libya 96
Mutter@@ 96
Nichts 96
Orleans 96
Pentagon 96
Physi@@ 96
Ross 96
Siber@@ 96
Stunt 96
Tas@@ 96
Tempo 96
Tig@@ 96
Verlauf 96
Wagen 96
Yo@@ 96
Zucker 96
acceler@@ 96
alled 96
alling 96
anda 96
aph@@ 96
arable 96
archy 96
arous@@ 96
artig 96
astronom@@ 96
awake 96
bananas 96
bekämpfen 96
benef@@ 96
berry 96
besuchte 96
boost 96
breed 96
bribe 96
cane 96
centimeter 96
cles 96
confron@@ 96
contacted 96
controversy 96
dac@@ 96
deploy 96
digkeit 96
distribute 96
drauf 96
eas@@ 96
ecken 96
ector 96
editors 96
ee@@ 96
eigentliche 96
eingeführt 96
electromagnetic 96
empi@@ 96
equilibrium 96
erfassen 96
ergeben 96
fertiliz@@ 96
fos@@ 96
friend@@ 96
fruits 96
frustrating 96
früh@@ 96
genetischen 96
gent@@ 96
harmful 96
harsh 96
harvesting 96
helmet 96
hot@@ 96
illnesses 96
individually 96
ishment 96
kaufte 96
kle@@ 96
kles 96
lay@@ 96
linking 96
menting 96
method@@ 96
migrate 96
nation-@@ 96
nevertheless 96
ont 96
orize 96
osing 96
patience 96
patri@@ 96
perceptions 96
pfen 96
plan 96
plas@@ 96
poles 96
premise 96
preserved 96
prevalence 96
primate 96
promot@@ 96
purely 96
rab@@ 96
races 96
recognizes 96
reconstruc@@ 96
rect 96
regar@@ 96
schwi@@ 96
scrat@@ 96
scrip@@ 96
seas@@ 96
shadows 96
similarly 96
simpl@@ 96
snakes 96
spezielle 96
sten@@ 96
supportive 96
tained 96
textbook 96
thood 96
thread 96
tification 96
tips 96
touches 96
transc@@ 96
twins 96
unle@@ 96
urable 96
utility 96
verfolgt 96
vin 96
volles 96
weite 96
willingness 96
word 96
worth@@ 96
yi@@ 96
zö@@ 96
Ö@@ 96
á@@ 96
00s 95
12-@@ 95
1968 95
Außen@@ 95
Banjo 95
Barack 95
Bull@@ 95
Calcul@@ 95
Clearly 95
Dav@@ 95
Dave 95
Doug 95
Fid@@ 95
Gamma 95
Gegenden 95
Geheim@@ 95
Guatemala 95
Hack 95
Inflation 95
Innen@@ 95
Margaret 95
Obsession 95
Oliver 95
Outdoor 95
Pearl 95
Poli@@ 95
Quad 95
Rau@@ 95
Register 95
Riesen@@ 95
Sands 95
Schuhe 95
Schutz@@ 95
Seri@@ 95
Sie@@ 95
Stir@@ 95
Tau@@ 95
Theorien 95
Transist@@ 95
Triumph 95
Vir@@ 95
Vogel 95
Whi@@ 95
Whoa 95
Wirtschaft@@ 95
Witz 95
Wolken 95
Workshop 95
accent 95
adop@@ 95
agre@@ 95
arium 95
astronomers 95
attrac@@ 95
ausgeben 95
bee 95
carp@@ 95
chy 95
commission@@ 95
defin@@ 95
deinem 95
dium 95
documenting 95
ea 95
easiest 95
emer@@ 95
empath@@ 95
ernähren 95
etes 95
exercises 95
flexi@@ 95
gations 95
gements 95
gerufen 95
grundlegenden 95
häu@@ 95
illumin@@ 95
isierung 95
ith@@ 95
ki 95
legten 95
lernten 95
maß@@ 95
mild 95
minimal 95
oberen 95
observing 95
ogen 95
omati@@ 95
oter 95
pale@@ 95
passions 95
plau@@ 95
poss@@ 95
presidential 95
proble@@ 95
proj@@ 95
punkte 95
questioning 95
recla@@ 95
ression 95
reveals 95
righ@@ 95
schießen 95
sende 95
struktur 95
studiert 95
truths 95
tual 95
uch 95
ulu 95
vaccin@@ 95
wasser@@ 95
well@@ 95
wunderbaren 95
zimmer 95
zin@@ 95
zukommen 95
Ü@@ 95
Überraschung 95
üben 95
160 94
53 94
Acute 94
Auswahl 94
Bedrohung 94
Coding 94
Commerce 94
Commun@@ 94
Denkweise 94
Diamond 94
Dunkelheit 94
ED 94
Ernährung 94
Everglades 94
Ganzen 94
Holocaust 94
Hü@@ 94
Jersey 94
Kraft@@ 94
Lap 94
MI@@ 94
Moses 94
Moun@@ 94
Nerd 94
Norman 94
Of 94
Operated 94
Physiker 94
Plastik 94
Plattform 94
Powder 94
Producer 94
Saal 94
Schwer@@ 94
Serge@@ 94
Shir@@ 94
Statements 94
Sue 94
Treffen 94
Tricky 94
Twenty 94
Unfall 94
Veter@@ 94
Wahlen 94
after@@ 94
assem@@ 94
away 94
battle@@ 94
beides 94
cis@@ 94
dau@@ 94
dedic@@ 94
eak 94
erfor@@ 94
ethics 94
etz@@ 94
ffe 94
gemein@@ 94
gesp@@ 94
go-@@ 94
heiß 94
hurts 94
informa@@ 94
integra@@ 94
ischem 94
nucleus 94
omes 94
organisiert 94
peri@@ 94
reicher 94
right-@@ 94
rock@@ 94
rt 94
sad@@ 94
scha@@ 94
schönes 94
sile 94
station 94
tenden 94
til@@ 94
tral 94
traurig 94
tum@@ 94
under-@@ 94
uplo@@ 94
urch@@ 94
vertrau@@ 94
weiten 94
ür 94
1973 93
21@@ 93
7.@@ 93
Aff@@ 93
African-American 93
Alber@@ 93
Asp@@ 93
BMW 93
Bath 93
Bienen@@ 93
Blumen 93
Bulg@@ 93
Cam@@ 93
Compressed 93
Denmark 93
Dialog 93
Directors 93
Ehr@@ 93
Eigenschaft 93
Fabrik 93
Fas@@ 93
Glück@@ 93
Kurz@@ 93
Lebenserwartung 93
Mamm@@ 93
Meer@@ 93
NI@@ 93
Nacht@@ 93
Niveau 93
Others 93
Petition 93
Privat@@ 93
Projekten 93
Psychologie 93
Quanten@@ 93
RISD 93
Radius 93
Reser@@ 93
SJ 93
Stamm@@ 93
Sus@@ 93
Tasmanian 93
Tweets 93
Van 93
Weisheit 93
Weltkrieg 93
Zahn@@ 93
accelerated 93
accompl@@ 93
addressed 93
aes@@ 93
altogether 93
amer@@ 93
anzusehen 93
arbitrary 93
ashamed 93
associ@@ 93
attacking 93
banned 93
beat 93
begrenzt 93
biologically 93
biologischen 93
blocked 93
bun@@ 93
categ@@ 93
celebrated 93
cerebral 93
certainty 93
chae@@ 93
chaotic 93
chemist 93
chteten 93
commonly 93
compla@@ 93
consistently 93
contro@@ 93
copying 93
cracked 93
deliberately 93
denselben 93
depths 93
descri@@ 93
disc@@ 93
disper@@ 93
distinguish 93
doses 93
doubling 93
emerges 93
endeavor 93
engths 93
enl@@ 93
eter@@ 93
ever-@@ 93
explic@@ 93
explode 93
fach 93
fam@@ 93
fel 93
fertilizer 93
fights 93
fließt 93
forma@@ 93
friction 93
fuzzy 93
gage 93
gesunden 93
gler 93
glücklicher 93
grossen 93
harness 93
heated 93
heim@@ 93
herunter 93
honey@@ 93
hooked 93
hund@@ 93
hypothe@@ 93
iPad 93
illiter@@ 93
impaired 93
infrared 93
instances 93
interessanten 93
intriguing 93
introducing 93
istence 93
judges 93
juvenile 93
kis@@ 93
krei@@ 93
kulturelle 93
lasse 93
lia 93
libraries 93
liers 93
lle 93
maid 93
manufacturers 93
master 93
mastery 93
mediate 93
migra@@ 93
moms 93
morally 93
optimize 93
pathway 93
perspectives 93
practiced 93
prin@@ 93
prisons 93
pumps 93
push@@ 93
refrigerator 93
reject 93
rement 93
repeatedly 93
repeti@@ 93
researching 93
riots 93
schaue 93
schwere 93
second-@@ 93
shade 93
shrink 93
ski@@ 93
slaves 93
smug@@ 93
spor@@ 93
standardi@@ 93
strengths 93
subjective 93
sucks 93
tary 93
temporal 93
tici@@ 93
tified 93
tsch@@ 93
turing 93
unver@@ 93
uting 93
valued 93
vering 93
visuelle 93
zuzu@@ 93
200@@ 92
300,000 92
93 92
Agnes 92
Americ@@ 92
Anstieg 92
Anthrop@@ 92
BL 92
Berge 92
Bonobos 92
Cent 92
Champ@@ 92
Cuba 92
Darfur 92
Design-@@ 92
ES@@ 92
Erosion 92
Fli@@ 92
Funktionen 92
Geeks 92
Grey 92
Infinity 92
Journ@@ 92
Kapitalismus 92
Katze 92
Kris@@ 92
Master@@ 92
Neanderth@@ 92
Netz@@ 92
Q 92
Queens 92
Retreat 92
Schaden 92
Schla@@ 92
Schwarz@@ 92
Stiftung 92
Stunts 92
Superior 92
Systemen 92
Tö@@ 92
UCLA 92
Ursprung 92
Zug 92
accurately 92
acoustic 92
adv@@ 92
ahn 92
alie 92
angel@@ 92
anpassen 92
apest 92
articulate 92
assuming 92
aufre@@ 92
block@@ 92
breakthroughs 92
calculating 92
collar 92
dankbar 92
developers 92
dition 92
dives 92
dliche 92
do-@@ 92
ehe 92
eholders 92
enhance 92
enthusias@@ 92
enthusiasm 92
erklärte 92
fails 92
flex@@ 92
fut@@ 92
galleries 92
gründete 92
knock 92
kosten@@ 92
kreativ 92
launching 92
mar 92
midst 92
milit@@ 92
mite 92
nationalen 92
nightmare 92
nungs@@ 92
octopus 92
operates 92
orn 92
ounce 92
outbreak 92
persons 92
persuade 92
phen@@ 92
prayer 92
presenting 92
reinvent 92
reson@@ 92
rotten 92
samkeit 92
sapiens 92
schwarz 92
sens@@ 92
sidewalk 92
small-@@ 92
sogenannten 92
stän@@ 92
technischen 92
vig@@ 92
wahrnehmen 92
warf 92
zero-@@ 92
zurückkehren 92
Änderungen 92
110 91
Andro@@ 91
Anti-@@ 91
Ath@@ 91
Auditorium 91
BIP 91
Bericht 91
Building 91
CO2-@@ 91
Coun@@ 91
Dead 91
Delta 91
Divine 91
Dump 91
Eli@@ 91
Gespräche 91
Going 91
Humans 91
Inneren 91
Investig@@ 91
Ivan 91
Julia 91
Kelly 91
Kre@@ 91
LA 91
Linux 91
Metrics 91
Paste 91
Persönlichkeit 91
Reagan 91
Schicht 91
Sebastian 91
Slave 91
Spei@@ 91
Sweeney 91
Symptome 91
TEDsters 91
Tennis 91
Titanic 91
Upright 91
Weibchen 91
Wissenschaftlern 91
acker 91
alin 91
angers 91
attend 91
beigebracht 91
bus 91
dazwischen 91
dep@@ 91
druck@@ 91
effizient 91
eph@@ 91
friendship 91
inclusive 91
inson 91
interessanterweise 91
irrelevant 91
jenen 91
kun@@ 91
lab@@ 91
lapse 91
ländlichen 91
mi 91
neigen 91
p-@@ 91
packen 91
part@@ 91
programm 91
quot 91
schickte 91
schle@@ 91
scream 91
sent@@ 91
sional 91
stirbt 91
stoffen 91
storyteller 91
symbol@@ 91
tech@@ 91
treibt 91
turbul@@ 91
ully 91
veling 91
voraus 91
wozu 91
wütend 91
öffentlich 91
2.5 90
40s 90
Abu 90
Champion 90
Dun@@ 90
Einrichtungen 90
Ell@@ 90
Entrepreneurship 90
Enzyme 90
Favelas 90
Fingertips 90
Freak 90
Gedächtnis 90
Hinblick 90
Hubble 90
Hudson 90
Ir@@ 90
Kamer@@ 90
Kohlenstoff 90
Kri@@ 90
Las 90
Maria 90
Mich@@ 90
Mitglieder 90
Muhammad 90
Ninth 90
Nun 90
Operator 90
Ot@@ 90
Pas@@ 90
Paulo 90
Privatsphäre 90
Sony 90
Spektrum 90
Sul@@ 90
Syri@@ 90
Umständen 90
Vagina 90
Verwendung 90
Volks@@ 90
Weltbevölkerung 90
Wonders 90
Wouldn 90
accepting 90
aggregate 90
alert 90
altruism 90
appreciated 90
attributes 90
axis 90
basking 90
batt@@ 90
beschreibt 90
besucht 90
bio-@@ 90
biop@@ 90
blank@@ 90
bloody 90
bombar@@ 90
broad@@ 90
cinema 90
circulation 90
civilian 90
colli@@ 90
com 90
complaining 90
composed 90
conceptual 90
conspi@@ 90
contradic@@ 90
convenience 90
crowded 90
crushed 90
debris 90
declared 90
degraded 90
derived 90
disappearing 90
disgu@@ 90
donated 90
eighth 90
elessly 90
ellular 90
encoura@@ 90
enters 90
entity 90
eper 90
epilep@@ 90
erre@@ 90
excep@@ 90
excess 90
exclusive 90
expectation 90
expense 90
exploded 90
financially 90
firms 90
fixing 90
fließen 90
fulfilling 90
gait 90
generosity 90
gentle 90
gesammelt 90
gestartet 90
governmental 90
gratitude 90
hatred 90
heit@@ 90
hinaus@@ 90
icy 90
igned 90
independently 90
infan@@ 90
intervene 90
ised 90
istent 90
kind@@ 90
ko 90
konfrontiert 90
kümmert 90
ladder 90
lag@@ 90
legally 90
lity 90
lized 90
manifes@@ 90
multiverse 90
near@@ 90
netz@@ 90
night 90
ona@@ 90
ood 90
oppres@@ 90
ouses 90
overl@@ 90
pathy 90
payment 90
philanthrop@@ 90
pione@@ 90
presents 90
problematic 90
protocell 90
rainforests 90
reac@@ 90
recovered 90
regelmäßig 90
relax 90
relevance 90
rey 90
routinely 90
ruhig 90
scanned 90
schule 90
section 90
seltsame 90
shipped 90
sicht@@ 90
slip 90
slowed 90
spaces@@ 90
spends 90
sport 90
squared 90
squee@@ 90
stamp 90
stated 90
struktur@@ 90
subsi@@ 90
synthes@@ 90
tant 90
teilten 90
teleph@@ 90
teren 90
thank@@ 90
toss 90
transformations 90
transmitted 90
unshine 90
urgent 90
valent 90
verschieden 90
verteb@@ 90
wahr@@ 90
wandering 90
wavel@@ 90
wher@@ 90
wished 90
wonderfully 90
wood@@ 90
äch@@ 90
1985 89
1986 89
46 89
Afrikaner 89
Algebra 89
Amateur 89
Aqu@@ 89
Argentina 89
Australian 89
Chan@@ 89
Chr@@ 89
Da 89
Flickr 89
Frauen@@ 89
Führ@@ 89
Führer 89
Führungs@@ 89
Gecko 89
Großen 89
Heck 89
Januar 89
Katastrophe 89
Ken@@ 89
Kilo 89
Knopf 89
Krei@@ 89
Leb@@ 89
Manifestation 89
Maß@@ 89
Murray 89
Nachbarschaft 89
Neuigkeiten 89
Non-@@ 89
On@@ 89
Parliament 89
Pools 89
Proben 89
Richtige 89
Rö@@ 89
Schmerzen 89
Schwar@@ 89
Serie 89
Simp@@ 89
Spl@@ 89
Supercomputer 89
Swedish 89
Sydney 89
Tamiflu 89
Terroristen 89
Universitäten 89
Williams 89
Wälder 89
XL 89
Zähne 89
advertis@@ 89
ake 89
apologize 89
berühren 89
blad@@ 89
clou@@ 89
conven@@ 89
countryside 89
dancer 89
directed 89
dood@@ 89
dunklen 89
ease 89
echter 89
eiten 89
fang 89
fisch 89
founding 89
gewann 89
han 89
haus@@ 89
hit@@ 89
hun@@ 89
identities 89
inmates 89
intern@@ 89
kg 89
kreativen 89
ktive 89
lifting 89
locks 89
mans 89
mat 89
position 89
proportion@@ 89
quelle 89
quietly 89
ranging 89
recipi@@ 89
repe@@ 89
ressing 89
rhythms 89
richtung 89
saßen 89
schlägt 89
sea 89
stick 89
tants 89
text 89
thes@@ 89
tho@@ 89
traumatic 89
trilli@@ 89
trop@@ 89
träge 89
udge 89
ulative 89
uli@@ 89
usw. 89
verschiedener 89
vised 89
wand@@ 89
worth 89
zentr@@ 89
ziert 89
zulassen 89
) 88
1976 88
Alternative 88
Anth@@ 88
Biased 88
Blend 88
Cafe 88
Calcium 88
Cathedral 88
Design@@ 88
Duty 88
Ern@@ 88
Geri@@ 88
Gesetz@@ 88
Golf@@ 88
Haie 88
Imperative 88
Investitionen 88
Justify 88
Kabel 88
LEDs 88
Misery 88
Officers 88
Parameters 88
Proto@@ 88
Rel@@ 88
Rs 88
Sorge 88
Spra@@ 88
Stein@@ 88
Step 88
Strangely 88
Techniken 88
Toten 88
anc@@ 88
angesichts 88
apparent 88
assessment 88
ausmachen 88
bad@@ 88
betroffen 88
bewahren 88
book@@ 88
brei@@ 88
chal@@ 88
decom@@ 88
devoted 88
echtes 88
empf@@ 88
empfinden 88
feiern 88
filmma@@ 88
harm@@ 88
hoher 88
höchsten 88
ierter 88
jus@@ 88
kidn@@ 88
könne 88
langweilig 88
lou@@ 88
maj@@ 88
mitnehmen 88
nervös 88
of-the-@@ 88
oft@@ 88
osaurus 88
pher 88
present@@ 88
produz@@ 88
rator 88
reale 88
schwä@@ 88
sigen 88
solo 88
stammen 88
stands@@ 88
superher@@ 88
tech 88
teure 88
tliche 88
trogen 88
tü@@ 88
umso 88
weibliche 88
werke 88
wunderschöne 88
zusetzen 88
zwingen 88
250,000 87
Baker 87
Bhutan 87
Blink 87
Blogging 87
CNN 87
Collider 87
DARPA 87
Democrats 87
Doktor@@ 87
E. 87
Either 87
Epi@@ 87
Euro 87
Free 87
Free@@ 87
Gall@@ 87
Gleichgewicht 87
Grand@@ 87
High-Speed 87
Institut 87
Isaac 87
JL 87
Jac@@ 87
Kings 87
Kle@@ 87
Komponenten 87
Kongo 87
Küche 87
Labels 87
Lis@@ 87
Mathema@@ 87
Metern 87
Num@@ 87
Paar 87
Pepsi 87
Posi@@ 87
Radar 87
Raub@@ 87
SR 87
Starbucks 87
Strategien 87
Such@@ 87
Szene 87
Taiwan 87
Tan@@ 87
Tar@@ 87
Team@@ 87
Univers@@ 87
Verfahren 87
Verhaltens@@ 87
Wirk@@ 87
Wür@@ 87
abandon 87
abges@@ 87
accountable 87
acousti@@ 87
addicted 87
advantages 87
anno@@ 87
anxious 87
anytime 87
appro@@ 87
appropriately 87
bandwidth 87
benign 87
betra@@ 87
campaigns 87
catastrophe 87
cess 87
chim@@ 87
chst@@ 87
coincidence 87
colorful 87
commands 87
compan@@ 87
conferences 87
confusion 87
continu@@ 87
convincing 87
crab 87
cried 87
declining 87
deer 87
demanding 87
demographics 87
determin@@ 87
differ 87
diplomati@@ 87
discussed 87
displaced 87
dissi@@ 87
divorce 87
dungs@@ 87
duration 87
dä@@ 87
eber 87
ebu@@ 87
efulness 87
eigh@@ 87
emo@@ 87
employ 87
encing 87
engers 87
entierte 87
eradication 87
ession 87
est-@@ 87
ety 87
expen@@ 87
expose 87
fic 87
fine-@@ 87
firmly 87
flexibility 87
fog 87
founder 87
gesunde 87
gies 87
gifts 87
glichen 87
gross@@ 87
grundlegend 87
hassen 87
hing@@ 87
horrific 87
idal 87
identifizieren 87
ideological 87
improvise 87
inch 87
induced 87
infinitely 87
ingu@@ 87
inject 87
injustice 87
instrum@@ 87
investig@@ 87
istics 87
jec@@ 87
jewelry 87
jum@@ 87
kolle@@ 87
lasts 87
lements 87
ligen 87
mathematically 87
meaningless 87
mile 87
miracles 87
monsoon 87
mustache 87
nectar 87
needing 87
needles 87
negoti@@ 87
nern 87
noble 87
notions 87
obtained 87
ograf@@ 87
ologies 87
oni@@ 87
opters 87
ousy 87
packt 87
parliament 87
photosyn@@ 87
physische 87
politisch 87
poorly 87
prefrontal 87
pregnancy 87
pressed 87
puberty 87
reactors 87
regenerate 87
releases 87
releasing 87
rennen 87
requirement 87
responds 87
restri@@ 87
reviews 87
rides 87
scaled 87
scenarios 87
secondly 87
sensible 87
sequenced 87
slowing 87
snow@@ 87
specim@@ 87
standpoint 87
statistically 87
stic 87
stur@@ 87
stärk@@ 87
subsidi@@ 87
successes 87
sums 87
taller 87
tedness 87
thous@@ 87
tremendously 87
tributes 87
two-dimensional 87
typing 87
unacceptable 87
varieties 87
vieler 87
violin 87
vision@@ 87
volumes 87
vorzu@@ 87
votes 87
wander@@ 87
wheel@@ 87
wid@@ 87
winzigen 87
wl 87
worldview 87
zeichnete 87
zent@@ 87
Ökonomen 87
üsse 87
-of-@@ 86
1.3 86
91 86
A.@@ 86
Astro@@ 86
Autismus 86
B-@@ 86
BM@@ 86
Bec@@ 86
Belohnung 86
Blade 86
By@@ 86
Canal 86
Cher@@ 86
Contin@@ 86
Dou@@ 86
Einfachheit 86
Euch 86
Evan 86
Gyrus 86
Ingenieur@@ 86
Initi@@ 86
Irrigation 86
Kindes 86
Klei@@ 86
Leiden 86
Leu@@ 86
Lithium 86
Mangel 86
Marine 86
Muskeln 86
Nachhaltigkeit 86
Pads 86
Placebo 86
Polar@@ 86
Pop@@ 86
Post@@ 86
Prospect 86
Prozesse 86
Ruins 86
SE@@ 86
Satelliten 86
Sop@@ 86
Staat@@ 86
Super 86
Tam@@ 86
Treasure 86
Twenty-@@ 86
Vie@@ 86
Wester@@ 86
Wetter 86
Wik@@ 86
Wohl@@ 86
Zipcar 86
acken 86
ags 86
aktuelle 86
alog 86
altes 86
ausges@@ 86
benutze 86
besonderen 86
camp@@ 86
cigarette 86
cruci@@ 86
developments 86
diffic@@ 86
dische 86
distorted 86
dos 86
dragonflies 86
elders 86
epidem@@ 86
fass@@ 86
feu@@ 86
flog 86
gebiete 86
gering 86
halls 86
happiest 86
harass@@ 86
has@@ 86
heiraten 86
hero@@ 86
hinunter 86
höheren 86
ignorieren 86
iley 86
infiziert 86
inspirieren 86
intend 86
intrigu@@ 86
knapp 86
komm@@ 86
kreative 86
küh@@ 86
lam@@ 86
lexic@@ 86
leys 86
lige 86
lik@@ 86
medic@@ 86
moralischen 86
mutual 86
neutr@@ 86
partments 86
per-@@ 86
phob@@ 86
plug@@ 86
quo 86
rhetor@@ 86
rockets 86
ruption 86
schla@@ 86
searches 86
sick@@ 86
signi@@ 86
studi@@ 86
synthesis 86
tausenden 86
third-@@ 86
tough@@ 86
tracked 86
umzu@@ 86
undergraduate 86
vieren 86
volunte@@ 86
weed 86
wri@@ 86
zah@@ 86
zurückgehen 86
ßer 86
ütz@@ 86
92 85
AC@@ 85
Algeri@@ 85
Antibiotika 85
Bands 85
Bank@@ 85
Betra@@ 85
Bump 85
Burns 85
Büro@@ 85
CC 85
Comedi@@ 85
Crystal 85
Eier 85
Explorer 85
Fort 85
Gallon 85
Genomics 85
Gericht 85
Highways 85
Icons 85
Implanted 85
Internets 85
Kohlenstoff@@ 85
Koll@@ 85
Konflikte 85
Konsum@@ 85
Lö@@ 85
Medizin@@ 85
Metropolitan 85
Noten 85
Oregon 85
Paradise 85
Post-@@ 85
Promotion 85
Prototypen 85
Republican 85
Scotland 85
Selb@@ 85
Sensoren 85
Sex@@ 85
Shar@@ 85
Shuttle 85
Staats@@ 85
Symptom 85
Terror@@ 85
Teufel 85
Tourist 85
Usually 85
Vs 85
Würde 85
adaptive 85
agne 85
amateur@@ 85
ar-@@ 85
arch 85
arrows 85
asch@@ 85
asen 85
ati 85
bende 85
berechnen 85
cc@@ 85
celebrating 85
chur@@ 85
deckt 85
diesmal 85
educators 85
eers 85
elektrischen 85
eth 85
folk 85
gebunden 85
gend@@ 85
gezwungen 85
ie-@@ 85
ign 85
inner@@ 85
irgendeinem 85
jenem 85
kleinere 85
kling 85
letz@@ 85
lever@@ 85
mini@@ 85
mission@@ 85
mittleren 85
nets 85
odynam@@ 85
oom 85
out-of-@@ 85
pel@@ 85
preventable 85
probieren 85
qualit@@ 85
ram@@ 85
ray 85
rendered 85
riesiges 85
scor@@ 85
sla@@ 85
spheres 85
steh@@ 85
streben 85
swit@@ 85
tize 85
tw@@ 85
valu@@ 85
west 85
wie@@ 85
wu@@ 85
you@@ 85
ützt 85
71 84
Alliance 84
Ari@@ 84
Barrels 84
Bis@@ 84
CRISPR 84
Cambodia 84
Carb@@ 84
Caribbean 84
Certainly 84
Clas@@ 84
Colorado 84
Dea@@ 84
Ehe 84
Fei@@ 84
Femin@@ 84
Fighters 84
Finland 84
Flasche 84
Füße 84
Hall@@ 84
Hem@@ 84
Joel 84
Kamp@@ 84
Kill@@ 84
Kol@@ 84
Krie@@ 84
Lit@@ 84
Luckily 84
Marke 84
Mind-Wandering 84
Mysteries 84
Naz@@ 84
Off@@ 84
Organe 84
Pick@@ 84
Pinguine 84
Quite 84
Regimes 84
Sabb@@ 84
Samen 84
Sat@@ 84
Scho@@ 84
Six@@ 84
Sper@@ 84
Stand@@ 84
Tanz 84
Tasman@@ 84
Toyota 84
U.@@ 84
Uni 84
Unlike 84
Vorgang 84
Well@@ 84
With 84
adjac@@ 84
admire 84
afterward 84
aggreg@@ 84
allgemein 84
analysieren 84
anesthesia 84
annoying 84
arial 84
arith@@ 84
arrange 84
assig@@ 84
assigned 84
assistant 84
attraction 84
axes 84
bankers 84
beans 84
bery 84
blocking 84
bombsight 84
breakdown 84
cali@@ 84
capac@@ 84
centered 84
certified 84
chungen 84
cigarettes 84
circa 84
civilians 84
cockroach 84
commodities 84
compul@@ 84
conclusions 84
constrained 84
contents 84
contradiction 84
coordinate 84
dealt 84
defeat 84
delicate 84
developmental 84
dien 84
drucken 84
ebt 84
elbow 84
entive 84
epy 84
erei 84
errei@@ 84
erwähnen 84
etten@@ 84
etting 84
executed 84
experimenting 84
faint 84
fish@@ 84
foam 84
frem@@ 84
funk@@ 84
fühl@@ 84
gather@@ 84
geable 84
hairs 84
hug 84
hyp@@ 84
igkeiten 84
incarcer@@ 84
incub@@ 84
indischen 84
inform 84
initiatives 84
innovators 84
interrupted 84
iratory 84
issued 84
jahr 84
jour@@ 84
knocked 84
laundry 84
lege 84
leuchten 84
lining 84
louder 84
macy 84
magni@@ 84
maintaining 84
malnutrition 84
mega-@@ 84
mitt@@ 84
modified 84
mundane 84
möglichkeiten 84
neugierig 84
non-lethal 84
offensive 84
ographie 84
orgasm 84
pain@@ 84
partis@@ 84
pfe 84
playground 84
preten@@ 84
process@@ 84
produktion 84
programmieren 84
rail 84
rainfall 84
redefine 84
reduces 84
referred 84
refined 84
registered 84
reiche 84
religi@@ 84
reproductive 84
restric@@ 84
revolutionary 84
rooted 84
routes 84
sailing 84
satisfying 84
schwerer 84
selective 84
settled 84
seu@@ 84
sham@@ 84
shares 84
shrin@@ 84
side-@@ 84
skip 84
sm 84
societal 84
spei@@ 84
spike 84
spouse 84
sticky 84
strateg@@ 84
strict 84
stücke 84
submitted 84
subscri@@ 84
sug@@ 84
surplus 84
tei@@ 84
temptation 84
than@@ 84
tigte 84
torture 84
towel 84
tract 84
traditionelle 84
tribal 84
ulations 84
ulties 84
uum 84
var@@ 84
vents 84
verein@@ 84
vian 84
victory 84
vide@@ 84
vil@@ 84
wahren 84
wiring 84
wrin@@ 84
zir@@ 84
änderte 84
öffnet 84
ücken 84
2.0 83
40-@@ 83
400,000 83
60-@@ 83
Aktion 83
Alright 83
Andy 83
Anruf 83
Aufbau 83
Batterie 83
Baum@@ 83
Bibel 83
Bronze 83
C.@@ 83
CE@@ 83
Contest 83
Controller 83
Ehre 83
Erdbeben 83
Fahrer 83
Farb@@ 83
Gang@@ 83
Gram 83
Hunters 83
Joy@@ 83
Komm 83
Lakota 83
Less 83
Lesters 83
Magn@@ 83
Mathematiker 83
Movember 83
Nancy 83
Northwest 83
Organismus 83
Our 83
Palestine 83
Penicillin 83
Pflanze 83
Phil@@ 83
Prototyping 83
Rabbits 83
Rex 83
Ruf 83
Secretary 83
Sri 83
TEDster 83
Tasche 83
Tennessee 83
Toast 83
UV 83
Ursache 83
WI@@ 83
Zah@@ 83
agrees 83
atten 83
ausser@@ 83
bomb@@ 83
boson 83
bust 83
chtern 83
coined 83
conscience 83
disgusting 83
dox@@ 83
emotionale 83
energe@@ 83
geräte 83
gewöhnt 83
harmon@@ 83
ho 83
insi@@ 83
inviting 83
krebs 83
krise 83
ktion@@ 83
learns 83
lenken 83
liert 83
limestone 83
listed 83
locking 83
mies 83
mitteln 83
mosque 83
name 83
noticing 83
onies 83
oven 83
oxide 83
parall@@ 83
petro@@ 83
posture 83
potenti@@ 83
programmer 83
ramp@@ 83
regrets 83
reparieren 83
sation 83
schten 83
schä@@ 83
schöner 83
scope 83
sex 83
stop@@ 83
suchten 83
summar@@ 83
summary 83
tastes 83
ting-@@ 83
trennen 83
träumen 83
tungen 83
unemployed 83
unstable 83
vastly 83
vermögen 83
vocal 83
voran@@ 83
watt 83
wundervolle 83
zeich@@ 83
zers 83
zte 83
zugleich 83
ältere 83
änder@@ 83
ätzen 83
-in-@@ 82
18-@@ 82
49 82
80,000 82
89 82
Anwendungen 82
Astronomical 82
Balk@@ 82
Beru@@ 82
Bicycles 82
Biologen 82
Biotechnology 82
Buck@@ 82
CP 82
Cameron 82
Cloud 82
Condom 82
Dog@@ 82
Dreh@@ 82
Dru@@ 82
Effizienz 82
Employee 82
Fairness 82
Falcon 82
Fehl@@ 82
Flam@@ 82
Fundraising 82
Gleich@@ 82
Gleichung 82
Gordon 82
Hitler 82
Hunter 82
I-@@ 82
Joh@@ 82
Juni 82
Jury 82
Kra@@ 82
Lauf@@ 82
Lungen@@ 82
Mot@@ 82
Motor@@ 82
Nachfrage 82
Nanotechnology 82
Oper@@ 82
Panbanisha 82
Peaks 82
Preise 82
Präsidenten 82
Rain@@ 82
Recently 82
SARS 82
Sach@@ 82
Self-Assembly 82
Singers 82
Solar 82
Southwest 82
StoryCorps 82
Syn@@ 82
Tanz@@ 82
Teil@@ 82
Theft 82
Tour@@ 82
Turk@@ 82
Unterricht 82
Velocity 82
Venice 82
Zucker@@ 82
aci@@ 82
ation-@@ 82
außergewöhnlich 82
bart 82
bass@@ 82
bie 82
bird 82
borne 82
contem@@ 82
deploy@@ 82
dug 82
emergent 82
endete 82
endste 82
entgegen@@ 82
erob@@ 82
esse 82
exakt 82
exter@@ 82
flash@@ 82
frequent 82
globalized 82
glück@@ 82
grenz@@ 82
hid 82
homosexu@@ 82
impos@@ 82
ingt 82
inters 82
ior 82
jährlich 82
krie@@ 82
kst@@ 82
kultur 82
kö@@ 82
lobe 82
minal 82
offene 82
oke 82
oney 82
oops 82
operni@@ 82
orchestr@@ 82
ped@@ 82
quet@@ 82
redu@@ 82
responsive 82
rollen 82
sat@@ 82
schutz 82
simil@@ 82
solar-@@ 82
stan@@ 82
tail 82
tende 82
terror@@ 82
tless 82
verletz@@ 82
vill@@ 82
weh 82
1. 81
6.@@ 81
Ach 81
Al-@@ 81
Angel@@ 81
Anything 81
Attribute 81
Bac@@ 81
Biom@@ 81
Büchern 81
Christian@@ 81
Colum@@ 81
DG 81
Darwinian 81
Doesn 81
Especially 81
Feind 81
Fot@@ 81
Gebieten 81
Geistes@@ 81
Gemüse 81
Humanities 81
Hundreds 81
Höhepunkt 81
J. 81
Kepler 81
Komp@@ 81
Laufen 81
Miner@@ 81
Model 81
Neben@@ 81
Nevada 81
Nic@@ 81
Over@@ 81
Peri@@ 81
Pic@@ 81
Potter 81
Psychiat@@ 81
Qui@@ 81
Reinventing 81
Russians 81
Schreiben 81
Sett@@ 81
Side 81
Skies 81
Stro@@ 81
Students 81
Supernova 81
Titus 81
Uplo@@ 81
Verkehr 81
Vorschlag 81
Weltraum 81
Wichtigste 81
acceleration 81
accompanied 81
accounting 81
acting 81
aga 81
ailing 81
amer 81
antidepress@@ 81
applause 81
aquatic 81
arabischen 81
arose 81
aspirations 81
atte 81
attempted 81
aufen 81
auts 81
backed 81
bent 81
benutzten 81
block 81
butter@@ 81
calendar 81
candle 81
cartilage 81
censorship 81
chens 81
chunk 81
citizenship 81
climbers 81
coh@@ 81
comparable 81
compass 81
computer-@@ 81
conqu@@ 81
corridors 81
cran@@ 81
culturally 81
datab@@ 81
daylight 81
decent@@ 81
deliber@@ 81
dende 81
depri@@ 81
desal@@ 81
dimension@@ 81
dious 81
disconnect 81
disconnected 81
disp@@ 81
dom@@ 81
dragged 81
duction 81
durfte 81
ealing 81
eased 81
eke@@ 81
encoun@@ 81
entially 81
erial 81
erlangen 81
eur@@ 81
expan@@ 81
fache 81
fashioned 81
feared 81
feh@@ 81
fei@@ 81
finan@@ 81
finite 81
fitting 81
flood 81
flour@@ 81
forecast 81
free-@@ 81
fän@@ 81
gemessen 81
geometric 81
guaranteed 81
guilt 81
head-tail-@@ 81
heroic 81
hingehen 81
impose 81
imposed 81
influences 81
irable 81
jaw 81
jeweils 81
kewise 81
labor@@ 81
lasted 81
ld 81
lerin 81
life@@ 81
low-income 81
mammoth 81
mana@@ 81
marvelous 81
millis@@ 81
mud@@ 81
mutil@@ 81
nahezu 81
nate 81
neurogenesis 81
noises 81
nuclei 81
nurture 81
ony@@ 81
ordnen 81
oted 81
oughly 81
parasites 81
pesticides 81
phrases 81
pir@@ 81
placing 81
poured 81
privaten 81
publ@@ 81
pursuing 81
ques 81
queu@@ 81
randomness 81
real-@@ 81
reasonably 81
reass@@ 81
restricted 81
retail 81
romance 81
sacrific@@ 81
sadly 81
shaping 81
shout 81
specialists 81
spontaneous 81
statistic 81
stimm@@ 81
stream@@ 81
stressful 81
structured 81
stände 81
survivor 81
sus@@ 81
susta@@ 81
taboo 81
theirs 81
thesia 81
thetic 81
throat 81
ti 81
timony 81
tionality 81
tious 81
trust@@ 81
umin@@ 81
unken 81
va@@ 81
vei@@ 81
verließ 81
vibr@@ 81
vibrating 81
vious 81
wartet 81
watches 81
weekends 81
weighed 81
weist 81
wiederholt 81
winzig 81
writes 81
wär@@ 81
yo 81
zuhören 81
öl@@ 81
übersetzen 81
5.@@ 80
6-@@ 80
77 80
Angel 80
Armstrong 80
Atem@@ 80
Ausnahme 80
Ausrüstung 80
Auto@@ 80
Bask@@ 80
Bibliothek 80
Bono 80
Bou@@ 80
CAPTCHA 80
CERN 80
Caltech 80
Cassini 80
Christ 80
Cod 80
Cooper 80
Cruise 80
Dev@@ 80
Drift 80
Drinks 80
Druck@@ 80
Dutzend 80
Edited 80
Eigen@@ 80
Emma 80
Exactly 80
Excuse 80
Feuer@@ 80
Fir@@ 80
Flug 80
Frank@@ 80
Geological 80
Herstellung 80
Hung 80
Klinik 80
Kongress 80
Leid 80
Maßnahmen 80
Mechanismus 80
Militär@@ 80
Mist 80
NBA 80
Nathan 80
OM@@ 80
Philosophie 80
Portland 80
Presse 80
Propulsion 80
RNG 80
Regel@@ 80
Rendering 80
Resultate 80
Schei@@ 80
Schlag@@ 80
Spinn@@ 80
Stil 80
Streaming 80
Tabl@@ 80
Tattoos 80
Umstände 80
Ungleichheit 80
Vergnügen 80
Verk@@ 80
Verlangen 80
a.@@ 80
ahnen 80
ativ 80
ausdrücken 80
auti@@ 80
bable 80
banana 80
befreien 80
beginnings 80
beitragen 80
broadcast@@ 80
chinesischen 80
contempl@@ 80
cripts 80
dlichen 80
dose 80
e-to-@@ 80
eager 80
editing 80
eer 80
einhalb 80
employed 80
ems 80
engineering 80
enormen 80
entitled 80
envision 80
ernal 80
erzeu@@ 80
eröffnet 80
faculty 80
figur@@ 80
filmmaker 80
funeral 80
geraten 80
gestaltet 80
glory 80
grow@@ 80
heutige 80
hinsichtlich 80
ignorant 80
incomplete 80
inherited 80
innere 80
intellec@@ 80
kennen@@ 80
larvae 80
löst 80
mochte 80
mythology 80
myths 80
nachdenkt 80
negotiation 80
obsc@@ 80
ografie 80
ois 80
orth@@ 80
oser 80
party 80
pati@@ 80
photo@@ 80
positiven 80
prak@@ 80
protes@@ 80
receiver 80
resonance 80
rid@@ 80
room@@ 80
rück@@ 80
schen@@ 80
schreibe 80
shouting 80
speech@@ 80
spl@@ 80
symmet@@ 80
systems 80
temper@@ 80
thrive 80
tili@@ 80
tu 80
tuberculosis 80
unpredictable 80
unsichtbar 80
vage 80
vors 80
warm@@ 80
zahl 80
200-@@ 79
39 79
88 79
A. 79
Akt 79
Ambassador 79
Arrangement 79
Dienstleistungen 79
Dollar-@@ 79
Dy@@ 79
Entwicklungsländer 79
Erkrankungen 79
Erste 79
Excellence 79
Fool 79
Fro@@ 79
Ground 79
Handlungen 79
Help 79
Hobby 79
Home 79
IT 79
Ideals 79
Julian 79
Key@@ 79
Kni@@ 79
Leiter 79
Mannes 79
Milch 79
Nation@@ 79
Neurological 79
OO@@ 79
Open@@ 79
Paralysis 79
PhD 79
Phili@@ 79
Pil@@ 79
Pop-up 79
R. 79
RG 79
Railway 79
Schlaf@@ 79
Schwestern 79
Seasons 79
Shuff@@ 79
Sovereign 79
Sprung 79
Sym@@ 79
TR 79
Tei@@ 79
Two 79
Verbesserung 79
Verteilung 79
Vorträge 79
Wein 79
Wände 79
Zit@@ 79
aa@@ 79
alyp@@ 79
amput@@ 79
antworten 79
attering 79
ausgehen 79
balcon@@ 79
besie@@ 79
blast 79
cen 79
cia 79
conducting 79
cop 79
cro 79
deserts 79
disappoin@@ 79
diskutieren 79
dist@@ 79
dless 79
dy@@ 79
effec@@ 79
enger 79
entiert 79
erende 79
erfüllen 79
esis 79
etics 79
fascin@@ 79
festgestellt 79
früheren 79
genom@@ 79
getestet 79
getragen 79
größe 79
heran@@ 79
ice 79
inform@@ 79
istan 79
jenseits 79
kaputt 79
kehr@@ 79
keinem 79
kle 79
klei@@ 79
kommen@@ 79
lier 79
mung 79
myth@@ 79
nationale 79
nut 79
oblig@@ 79
ogni@@ 79
opoli@@ 79
pen 79
repräsentiert 79
rise 79
setzung 79
sicherer 79
sis 79
sozial 79
stab@@ 79
stard 79
stets 79
succe@@ 79
terte 79
testoster@@ 79
tigten 79
veget@@ 79
verletzt 79
verlor 79
verteilen 79
vorgestellt 79
wired 79
ßes 79
öfter 79
überzeu@@ 79
11th 78
5,@@ 78
66 78
AV 78
AW@@ 78
Activ@@ 78
Barry 78
Batt@@ 78
Bikes 78
Bosnia 78
CIA 78
CT 78
Enceladus 78
Europe@@ 78
Forget 78
Freund@@ 78
Galileo 78
Gebäudes 78
Geschlecht 78
Haare 78
Hadron 78
Hopefully 78
Hunderte 78
Illustration 78
Khan 78
Kilos 78
Knie 78
Kreb@@ 78
Ky@@ 78
Liber@@ 78
Logik 78
Mahatma 78
Mantra 78
Mediterranean 78
Mom@@ 78
Norm@@ 78
Norwegian 78
Often 78
Papa 78
Philipp@@ 78
Pioneer 78
Prei@@ 78
Protests 78
Q. 78
Rock 78
Standard 78
Strat@@ 78
Swe@@ 78
Toaster 78
U-@@ 78
World@@ 78
Wunder@@ 78
Wut 78
Zo@@ 78
ad-@@ 78
addicts 78
aer@@ 78
animations 78
ano 78
anzugehen 78
appearing 78
appliances 78
approval 78
asions 78
athlete 78
aust@@ 78
automatic 78
balance 78
bedeckt 78
billig 78
bind 78
bine 78
bitter 78
bleeding 78
blur@@ 78
bounce 78
box@@ 78
breaking 78
brick 78
broadly 78
bucket 78
carcin@@ 78
celeb@@ 78
cellphone 78
charities 78
col 78
combinations 78
confirmed 78
contacts 78
contributions 78
cooked 78
copy 78
crawl 78
cript 78
cues 78
custom 78
delighted 78
dend 78
deserti@@ 78
dged 78
digits 78
disruption 78
distinctive 78
doub@@ 78
eingesch@@ 78
einziges 78
embarrass@@ 78
embraced 78
energ@@ 78
energy-@@ 78
enk@@ 78
enny 78
enterpris@@ 78
erb@@ 78
erhielten 78
eva 78
executive 78
explicitly 78
exquisite 78
fees 78
fertility 78
firsthand 78
fitted 78
fled 78
flourish 78
forbid 78
gallons 78
glaciers 78
guid@@ 78
histories 78
hotter 78
höchste 78
identifying 78
idity 78
incidentally 78
indul@@ 78
inning 78
insisted 78
intrinsic 78
iors 78
irgendwelche 78
jähriger 78
kilograms 78
kräfte 78
kulturellen 78
lauf 78
lawn 78
literal 78
loneliness 78
lure 78
lä@@ 78
manages 78
matching 78
minor 78
mitted 78
mte 78
natural 78
negotiating 78
negotiations 78
neulich 78
nonviolent 78
not-@@ 78
nurturing 78
observer 78
occu@@ 78
orbiting 78
organis@@ 78
organizational 78
oug@@ 78
p.m. 78
pancreatic 78
parag@@ 78
pediat@@ 78
petals 78
pillar 78
plying 78
pollutants 78
predat@@ 78
preferred 78
prevents 78
prioritize 78
projec@@ 78
projections 78
proportional 78
quantity 78
reacting 78
reconstruct 78
recycle 78
relaxed 78
resour@@ 78
respon@@ 78
sag 78
sail@@ 78
samer 78
satisfy 78
schedule 78
schlag@@ 78
schooling 78
schreckliche 78
schwe@@ 78
sechs@@ 78
second 78
selbe 78
simulated 78
sorge 78
sought 78
sounded 78
sozialer 78
spine 78
steer 78
strictly 78
strom 78
suburban 78
suspicious 78
tanzen 78
thei@@ 78
third 78
tian 78
tility 78
tization 78
toral 78
toren 78
traditionally 78
trusting 78
twis@@ 78
unified 78
unior 78
valid 78
verge 78
verlangen 78
verrückte 78
verstecken 78
ween 78
worthwhile 78
Änderung 78
… 78
360 77
80-@@ 77
BBC 77
Barefoot 77
Bedürfnis 77
Believe 77
Blase 77
Bord 77
Brun@@ 77
Cairo 77
Cent@@ 77
Charts 77
Cyber 77
DJ 77
Dod@@ 77
Dubai 77
Ebenen 77
Fac@@ 77
Figur 77
God@@ 77
Harv@@ 77
Hood 77
Human@@ 77
Jamie 77
Klassen@@ 77
Lebensmittel@@ 77
Leh@@ 77
Liter 77
Marcus 77
Maß 77
Ministers 77
Neil 77
Performan@@ 77
Pferd 77
Roman@@ 77
Röntgen@@ 77
Schrift@@ 77
Sektor 77
Sever@@ 77
Sho@@ 77
Spezi@@ 77
Startu@@ 77
Sun@@ 77
Transistor 77
Tränen 77
Utop@@ 77
Vibra@@ 77
Vier@@ 77
Vogel@@ 77
Wirtschaftswachstum 77
Wurzeln 77
Yves 77
abytes 77
acts 77
alisierten 77
anfängt 77
ashes 77
aunt 77
befassen 77
benutzte 77
berühmt 77
biochem@@ 77
bluefin 77
carri@@ 77
chemischen 77
cil 77
contagious 77
dark@@ 77
defines 77
determination 77
dicht 77
equi@@ 77
excer@@ 77
feasi@@ 77
film 77
gaze 77
gebung 77
gelangt 77
geschützt 77
geöffnet 77
graph 77
hats 77
intelligente 77
iten 77
kün@@ 77
licens@@ 77
listen@@ 77
läu@@ 77
lös@@ 77
misst 77
mute 77
navig@@ 77
ne-@@ 77
netz 77
otive 77
paper@@ 77
photographers 77
quantitative 77
quotes 77
road 77
road@@ 77
sail 77
sched@@ 77
schlimmsten 77
sige 77
sinn 77
suburbs 77
tad@@ 77
technische 77
tiefe 77
tolerant 77
toxins 77
tric@@ 77
ular@@ 77
urt 77
verarbeiten 77
verliebt 77
verted 77
visibility 77
visuellen 77
wasting 77
werdet 77
wron@@ 77
zuletzt 77
äter 77
überlebt 77
50.000 76
56 76
Ansichten 76
Bak@@ 76
Berechnungen 76
Blog 76
Bow@@ 76
Che@@ 76
Checklist 76
Einheiten 76
Explorers 76
Exxon 76
Fibon@@ 76
Flü@@ 76
Friedman 76
Futter 76
Gangs 76
Gedichte 76
Generator 76
Imitation 76
Indoor 76
Inputs 76
Kenyan 76
Kn@@ 76
Konzepte 76
Lab@@ 76
Limitation 76
Lächeln 76
M. 76
MP@@ 76
Meere 76
Mentors 76
Miami 76
Nam@@ 76
Notation 76
Partei 76
Pops 76
RO@@ 76
RSW 76
Rod 76
Russell 76
Spur 76
Standard@@ 76
Tee 76
Telecom@@ 76
Textile 76
Toilette 76
UK 76
Versorgung 76
Waffe 76
Walker 76
Wild@@ 76
abgesch@@ 76
ackt 76
ahs 76
alar@@ 76
anbieten 76
ao 76
atur 76
ausmacht 76
aver 76
beträgt 76
boy 76
chol@@ 76
closure 76
dras@@ 76
dunkel 76
dün@@ 76
enri@@ 76
enzy@@ 76
erup@@ 76
esc@@ 76
eus 76
extremes 76
fuhren 76
fürchten 76
gelaufen 76
gelt 76
gige 76
hof 76
hre 76
icry 76
ih@@ 76
ini 76
inspi@@ 76
kreiert 76
künstliche 76
leistung 76
lot 76
lover 76
ographer 76
optimi@@ 76
posit@@ 76
regel@@ 76
retr@@ 76
rics 76
ring@@ 76
sches 76
schlau 76
schnelle 76
screw 76
spieler 76
stumbled 76
substanti@@ 76
teen 76
tiefen 76
ungs-@@ 76
unintended 76
uph@@ 76
verschwindet 76
vierten 76
vory 76
wandern 76
wur@@ 76
yal 76
zel@@ 76
ärm@@ 76
ücke 76
8.@@ 75
84 75
Achilles 75
Alabama 75
Amerikas 75
Bali 75
Bergen 75
Bertie 75
Booth 75
Brei@@ 75
Brustkrebs 75
CDs 75
Cognition 75
Cohen 75
Doktor 75
Ds 75
Eden 75
Establishment 75
Europä@@ 75
Flugzeuge 75
Get@@ 75
Globalisierung 75
Graham 75
Handeln 75
Himalayas 75
Hinweise 75
Hygiene 75
ID 75
Jennifer 75
KS 75
Kapit@@ 75
Kick@@ 75
Lesterland 75
Marx 75
Max 75
Muslime 75
Nap@@ 75
Navig@@ 75
Olymp@@ 75
Oran@@ 75
Oscar 75
Produk@@ 75
Reflex 75
Roosevelt 75
Schreib@@ 75
Senator 75
Solomon 75
Stift 75
Sting 75
Tja 75
Voyager 75
Weekly 75
abnormal 75
action 75
adver@@ 75
aktiven 75
aktuellen 75
allgemeinen 75
anatom@@ 75
anic 75
ank@@ 75
artic@@ 75
aser 75
aterial 75
ausschließlich 75
auszudrücken 75
beit 75
bekann@@ 75
bell@@ 75
ber-@@ 75
calcul@@ 75
chan@@ 75
chtes 75
chtete 75
comple@@ 75
confir@@ 75
conflic@@ 75
divor@@ 75
duce 75
emotion@@ 75
entsprechend 75
famili@@ 75
fordert 75
fügt 75
fühlten 75
geblieben 75
gegenüber@@ 75
gelehrt 75
git@@ 75
hec@@ 75
hinauf 75
icle 75
ju 75
kop@@ 75
liefert 75
lossen@@ 75
manufactur@@ 75
maßen 75
measu@@ 75
mten 75
nograph@@ 75
ong@@ 75
overlap 75
part 75
partial 75
permanently 75
pervasive 75
phy@@ 75
physischen 75
pneumonia 75
potato 75
potatoes 75
prece@@ 75
publication 75
punish 75
reali@@ 75
rectangle 75
regulating 75
replied 75
requirements 75
rist 75
runter@@ 75
scarce 75
schlimm 75
schriften 75
scripts 75
sexuelle 75
sighted 75
signing 75
similarities 75
sketches 75
stag@@ 75
stereotypes 75
sterile 75
stom@@ 75
stretched 75
suggestions 75
surprises 75
surroundings 75
synes@@ 75
synthesize 75
tecton@@ 75
therwise 75
threaten 75
thrust 75
timber 75
tou@@ 75
tra 75
transcend 75
triggered 75
triple 75
troubled 75
unemployment 75
unimagin@@ 75
unsustainable 75
unterhalb 75
verringern 75
veterin@@ 75
visceral 75
vo 75
volcanic 75
volcano 75
vorwärts 75
wages 75
waking 75
wall 75
wirklichen 75
wissenschaftlich 75
wounds 75
ype 75
älteren 75
äuß@@ 75
‘ 75
1974 74
74 74
Asi@@ 74
Baltimore 74
Beat@@ 74
Bedarf 74
Bewohner 74
Blätter 74
Bs 74
Cartoonist 74
Compan@@ 74
Developer 74
Duke 74
Ep@@ 74
Evaluation 74
Fahrzeuge 74
Fred 74
Fremden 74
Gaza 74
Gei@@ 74
Gut@@ 74
Hab@@ 74
Harlem 74
Höhle 74
Inv@@ 74
Jesse 74
Josh 74
Knochen@@ 74
Konsumenten 74
Kreuz@@ 74
Lag@@ 74
Lehrern 74
Ly@@ 74
M.@@ 74
MA 74
Mario 74
Meadow 74
Messaging 74
Monopoly 74
Navy 74
Non@@ 74
Offshore 74
Oprah 74
Organ@@ 74
Patri@@ 74
Power 74
Psychopath 74
Rachel 74
Reh@@ 74
Reisen 74
Romo 74
Ruhe 74
Saint 74
Schle@@ 74
Schwarze 74
Sim@@ 74
Simulator 74
Stimulus 74
Stocks 74
Synap@@ 74
TB 74
Tief@@ 74
Trailer 74
Transparenz 74
Vancouver 74
Wander@@ 74
abri@@ 74
adly 74
afrikanische 74
alter@@ 74
angen 74
are-@@ 74
atin 74
auth@@ 74
bedarf 74
bedingungen 74
behaupte 74
bewegte 74
cue 74
dauer@@ 74
demokra@@ 74
eingehen 74
ema 74
entdeckten 74
entwicklung 74
epidemi@@ 74
erledigen 74
ersetzt 74
ertes 74
fluss 74
folgte 74
gedreht 74
griffen 74
hä@@ 74
influenz@@ 74
inklusive 74
irty 74
karten 74
kochen 74
ksh@@ 74
kts 74
kämpft 74
linke 74
nachhaltige 74
niedrig@@ 74
otes 74
oth@@ 74
painter 74
passion 74
praise 74
rain@@ 74
remembers 74
ruft 74
scape 74
schwar@@ 74
secular 74
self-esteem 74
settings 74
some@@ 74
strei@@ 74
tender 74
therap@@ 74
therapeu@@ 74
tod@@ 74
tration 74
tropics 74
umzusetzen 74
underestimate 74
urbanization 74
vent 74
vices 74
wast@@ 74
willkommen 74
Übung 74
ó@@ 74
ück@@ 74
# 73
2. 73
20.000 73
29@@ 73
68 73
Angriff 73
Aufstieg 73
Ausgaben 73
Ballet 73
Bay@@ 73
Biomim@@ 73
Biotech 73
Blogger 73
DL 73
Fit@@ 73
Fitness 73
Geruch 73
Gew@@ 73
Gipfel 73
Grün@@ 73
Hö@@ 73
Hölle 73
IMF 73
IP@@ 73
Illu@@ 73
Jackson 73
Jugend 73
Kab@@ 73
Kas@@ 73
Kontroll@@ 73
Kop@@ 73
Lieb@@ 73
Marshall 73
Mill 73
Mitglied 73
Moder@@ 73
Nano 73
Neutr@@ 73
Oakland 73
Patho@@ 73
Pope 73
Rap@@ 73
Reichtum 73
Rift 73
Sammlung 73
Scham 73
Sergio 73
Simul@@ 73
Snap 73
Steak 73
TEDx 73
Tales 73
Tea@@ 73
Tele@@ 73
Viol@@ 73
Wal-Mart 73
Wechsel@@ 73
Wit@@ 73
ard@@ 73
asound 73
außergewöhnliche 73
bank 73
basierte 73
bedeutend 73
betr@@ 73
beu@@ 73
brü@@ 73
bü@@ 73
crimin@@ 73
echnologie 73
einzigartig 73
embry@@ 73
entieren 73
etc. 73
fill@@ 73
fir@@ 73
fische 73
gan 73
geh 73
gele@@ 73
gewöhnlich 73
gieren 73
greif@@ 73
head-@@ 73
heb@@ 73
hili@@ 73
inge 73
inneren 73
ino 73
kannten 73
konstru@@ 73
leben@@ 73
mes@@ 73
mobil@@ 73
nachhaltig 73
nerv@@ 73
ogra@@ 73
oo 73
ooth@@ 73
projekt 73
quis@@ 73
schaffte 73
sensi@@ 73
stadt 73
stereotyp@@ 73
stung 73
stö@@ 73
suit@@ 73
trait 73
trunk 73
twe@@ 73
tweet 73
unders 73
unting 73
verw@@ 73
vorhersagen 73
weltweite 73
wunderschön 73
yard 73
zeugen 73
zukünftige 73
zukünftigen 73
äufer 73
è@@ 73
übersetzt 73
1983 72
4-@@ 72
61 72
73 72
Abl@@ 72
Adventures 72
After@@ 72
Atem 72
Aura 72
Auswirkung 72
Autor 72
Bassem 72
Bewegungs@@ 72
Bolt 72
Bonobo 72
Briga@@ 72
Cli@@ 72
DC 72
DV@@ 72
Dienst 72
Dodo 72
Dove 72
Echo 72
Entstehung 72
FOXO 72
Fliege 72
Gebrauch 72
Geschäft@@ 72
Gil@@ 72
Großvater 72
HP 72
Has@@ 72
Häu@@ 72
Hör@@ 72
Inhalte 72
Jav@@ 72
Jonas 72
Journalisten 72
Leg@@ 72
Lie@@ 72
Mahmoud 72
Manifest 72
Olive 72
Ph.@@ 72
Power@@ 72
Pros@@ 72
Prostitution 72
Psyche 72
Ral@@ 72
Rebel 72
Recht@@ 72
Reed 72
Refer@@ 72
Rezep@@ 72
Richter 72
Rosling 72
Schnee 72
Span@@ 72
Spielzeug 72
Stille 72
Stockholm 72
Studium 72
Tablet 72
Theat@@ 72
Tunn@@ 72
Ultr@@ 72
Umgang 72
Upgrade 72
Walmart 72
Werke 72
Wissens 72
Workshops 72
ament@@ 72
aments 72
atra@@ 72
ausgegeben 72
bands 72
bbon 72
bedro@@ 72
beru@@ 72
boden 72
cas 72
chst 72
circu@@ 72
clas@@ 72
comes 72
contain@@ 72
dding 72
dere 72
effek@@ 72
eien 72
einzusetzen 72
elem@@ 72
eless@@ 72
enced 72
execu@@ 72
exhi@@ 72
extrem@@ 72
firma 72
folge 72
gewissermaßen 72
glei@@ 72
gmatic 72
gucken 72
heu@@ 72
hindurch 72
iPods 72
immen@@ 72
ingness 72
kam@@ 72
kill@@ 72
leh@@ 72
liebt 72
nano-@@ 72
nic@@ 72
nutzten 72
olith@@ 72
oos 72
optimis@@ 72
orable 72
poor@@ 72
promp@@ 72
propag@@ 72
rel 72
schieben 72
schild 72
sourcing 72
stam@@ 72
strating 72
ständen 72
subur@@ 72
teilte 72
terminal 72
them@@ 72
uit 72
vern@@ 72
vorn 72
wahrschein@@ 72
winzige 72
wise 72
züge 72
ärmsten 72
ät 72
öffnete 72
überprüfen 72
1918 71
1982 71
Aaron 71
Ale@@ 71
Anas 71
Angebot 71
Appar@@ 71
Bad@@ 71
Bahamas 71
Beitrag 71
Bru@@ 71
Bäumen 71
Cow@@ 71
DM@@ 71
Doc 71
EU 71
Ehemann 71
Ev@@ 71
Export 71
Fahrrad 71
Fantasie 71
Figuren 71
Fla@@ 71
Flügel 71
Forsch@@ 71
Galois 71
Gas@@ 71
Gegenstände 71
Gesundheitssystem 71
Heim@@ 71
Hitze 71
Investi@@ 71
Jason 71
Jazeera 71
KT 71
Kommunikations@@ 71
Köpfen 71
Liefer@@ 71
Madagas@@ 71
Monument 71
NT 71
Nests 71
Noah 71
Oktober 71
Polizei@@ 71
Reich 71
SL 71
Schülern 71
Serotonin 71
Stanley 71
Sternen 71
Stoff 71
Teleskop 71
Trek 71
Videospiele 71
Walter 71
Welle 71
Werten 71
You@@ 71
alisten 71
allgemeine 71
amm 71
angekommen 71
batter@@ 71
bedroht 71
betre@@ 71
brand@@ 71
coch@@ 71
diplom@@ 71
ecture 71
eile 71
eilen 71
erzielen 71
fade 71
fehlen 71
flug 71
flächen 71
fuge 71
gewinnt 71
gigan@@ 71
hang@@ 71
hen@@ 71
ierungen 71
inher@@ 71
irgendwas 71
ives 71
kauft 71
klingen 71
komplizierte 71
kran@@ 71
kämp@@ 71
lah 71
mende 71
mengen 71
mond 71
natur@@ 71
oxy@@ 71
peti@@ 71
profit 71
progressive 71
promin@@ 71
proph@@ 71
rad 71
religiösen 71
scan@@ 71
schafften 71
schie@@ 71
schreck@@ 71
spielten 71
twin@@ 71
unds 71
ungst@@ 71
veranst@@ 71
verdammt 71
verl@@ 71
vermittelt 71
wodurch 71
zehn@@ 71
zurückkommen 71
zusammenzu@@ 71
ähnliches 71
ätz@@ 71
99.@@ 70
Abenteuer 70
Abfall 70
Alfred 70
Ana@@ 70
Ass@@ 70
Blickwinkel 70
Celsius 70
Dinger 70
Dynamik 70
E-Mails 70
Fellows 70
Flie@@ 70
Flüssigkeit 70
Geek 70
Glenn 70
Grippe 70
Haw@@ 70
IDEO 70
Jung@@ 70
Kil@@ 70
Kim 70
Kiste 70
LO@@ 70
Lebensqualität 70
Mei@@ 70
Nervenzellen 70
Ooh 70
Operationen 70
Photoshop 70
Praxis 70
Proje@@ 70
Quar@@ 70
Rica 70
Ruanda 70
Schulter 70
Sequenz 70
Shei@@ 70
Singular 70
Sponsor 70
Springs 70
Stak@@ 70
Statistik 70
Süß@@ 70
T-Shirt 70
TE@@ 70
Transport@@ 70
Vel@@ 70
Vul@@ 70
Zeitungen 70
Ziel@@ 70
Zw@@ 70
agen@@ 70
aka 70
angetrieben 70
appl@@ 70
asymmet@@ 70
beliebt 70
bewerten 70
beziehen 70
cial 70
dago@@ 70
dou@@ 70
dumm 70
ehren 70
eland 70
erenden 70
erfol@@ 70
erinnerte 70
erkunden 70
eton 70
fere 70
fizieren 70
fressen 70
fts@@ 70
gegessen 70
gesucht 70
gill 70
glas 70
höh@@ 70
intrin@@ 70
ix@@ 70
linear@@ 70
membran@@ 70
norm@@ 70
of-@@ 70
ologische 70
ovas@@ 70
patho@@ 70
politik 70
profitieren 70
rebel@@ 70
reiste 70
rela@@ 70
rest 70
sanit@@ 70
schlei@@ 70
schläge 70
schwierigen 70
senken 70
spir@@ 70
stock 70
ten-@@ 70
tent@@ 70
uen 70
unterscheidet 70
verbrauchen 70
verbraucht 70
vergi@@ 70
virtuellen 70
wollt 70
zeichnung 70
zigen 70
zusätzliche 70
Ärzten 70
1957 69
63 69
70@@ 69
ADH@@ 69
Algorithmus 69
Ama@@ 69
Bach 69
Beck 69
Beinen 69
Bier 69
CP@@ 69
Cir@@ 69
Cle@@ 69
Danke 69
De 69
Depressionen 69
Di 69
Diana 69
Dichte 69
Dick 69
Doll@@ 69
Fast@@ 69
Gehir@@ 69
Hack@@ 69
Hos@@ 69
IV 69
Köpfe 69
LE@@ 69
Lehre 69
Menschlichkeit 69
Mik@@ 69
Mili@@ 69
Mississippi 69
NY@@ 69
Network 69
Origin@@ 69
PI@@ 69
Punkten 69
Riverside 69
Run@@ 69
Schauspieler 69
Smartphones 69
Spac@@ 69
Spot@@ 69
Steuer@@ 69
Streit@@ 69
Tages@@ 69
Tak@@ 69
Therapie 69
Tox@@ 69
UC@@ 69
Vic@@ 69
Werbe@@ 69
alterna@@ 69
ause 69
ausgebildet 69
busin@@ 69
chtigkeit 69
chts 69
coinci@@ 69
durchs 69
econ@@ 69
effizienter 69
ehr 69
erfordert 69
erfüllt 69
erzählten 69
exis@@ 69
finanz@@ 69
flüs@@ 69
forder@@ 69
forec@@ 69
fortun@@ 69
fördert 69
geomet@@ 69
gert 69
ght-@@ 69
gon 69
günsti@@ 69
hallucin@@ 69
herein 69
ierendes 69
infra@@ 69
inmitten 69
journ@@ 69
klein@@ 69
komplexer 69
krieg 69
kro@@ 69
kürz@@ 69
leeren 69
libr@@ 69
loy@@ 69
mira@@ 69
mische 69
monit@@ 69
neighbor@@ 69
offici@@ 69
ounded 69
pensive 69
posal 69
remo@@ 69
remot@@ 69
selb@@ 69
soziales 69
spek@@ 69
stellungen 69
stün@@ 69
suing 69
te-@@ 69
ticity 69
titude 69
trugen 69
twen@@ 69
ularly 69
ungeheuer 69
unter-@@ 69
vent@@ 69
waschen 69
weal@@ 69
weitermachen 69
wich 69
ört 69
üre 69
1987 68
41 68
Amanda 68
Anerkennung 68
Australi@@ 68
Beats 68
Blues 68
Embryo 68
Entschuldigung 68
Fernseher 68
Gel 68
Hinweis 68
Hunder@@ 68
IP 68
Identi@@ 68
Impul@@ 68
Israelis 68
Karl 68
Kluft 68
Kriege 68
Kun@@ 68
Legos 68
Lichter 68
Lor@@ 68
Lux@@ 68
Magazin 68
Makeup 68
Mehr@@ 68
Missouri 68
Mrs. 68
NA@@ 68
NM 68
Nachbar@@ 68
Nicht-@@ 68
Onkel 68
Park@@ 68
Persi@@ 68
Prim@@ 68
Qatar 68
Quadrat 68
Rad 68
Rec@@ 68
Sag@@ 68
Schnitt 68
Standpunkt 68
Störungen 68
Venter 68
Walk 68
Wohlbefinden 68
Ze 68
[...]
